{
  "</s>": 0,
  "<unk>": 1,
  ".": 2,
  ",": 3,
  "\u2581de": 4,
  "\u2581van": 5,
  "\u2581die": 6,
  "\u2581in": 7,
  "\u2581der": 8,
  "\u2581": 9,
  "\u2581het": 10,
  "\u2581en": 11,
  "\u2581und": 12,
  "s": 13,
  "en": 14,
  "\u2581een": 15,
  "-": 16,
  "\u2581-": 17,
  "e": 18,
  "?": 19,
  "\u2581(": 20,
  "\u2581voor": 21,
  "\u2581te": 22,
  "n": 23,
  "\u2581is": 24,
  "\u2581op": 25,
  "\u2581dat": 26,
  ")": 27,
  "\u2581zu": 28,
  "\u2581von": 29,
  "\u2581den": 30,
  ":": 31,
  "\u2581met": 32,
  "\u2581f\u00fcr": 33,
  "\u2581ist": 34,
  "\u2581des": 35,
  "\u2581zijn": 36,
  "\u2581auf": 37,
  "\u2581niet": 38,
  "t": 39,
  "\u2581nicht": 40,
  "\u2581das": 41,
  "\u2581mit": 42,
  "\u2581als": 43,
  "\u2581De": 44,
  "\u2581aan": 45,
  "\u2581worden": 46,
  "\u2581\"": 47,
  "\u2581Sie": 48,
  "\u2581je": 49,
  "er": 50,
  "\u2581werden": 51,
  "\u2581er": 52,
  "\u2581eine": 53,
  "\u2581Die": 54,
  "\u2581om": 55,
  "\u2581im": 56,
  "\u2581of": 57,
  "\u2581ein": 58,
  "\u2581dem": 59,
  ";": 60,
  "\u2581es": 61,
  "\u2581ik": 62,
  "\u2581ich": 63,
  "\u2581Ik": 64,
  "\u2581Ich": 65,
  "\u2581oder": 66,
  "\u2581tot": 67,
  "\u2581door": 68,
  "\u2581an": 69,
  "r": 70,
  "!": 71,
  "\u2581sind": 72,
  "\u2581sich": 73,
  "\u2581sie": 74,
  "'": 75,
  "\u2581bij": 76,
  "\u2581Het": 77,
  "\u2581In": 78,
  "\u2581dass": 79,
  "\u2581\u00fcber": 80,
  "\u2581was": 81,
  "\u2581wird": 82,
  "\u2581over": 83,
  "\u2581deze": 84,
  "d": 85,
  "\u2581zur": 86,
  "\u2581wordt": 87,
  "\u2581heeft": 88,
  "\u2581S": 89,
  "\u2581wir": 90,
  "\u2581Commissie": 91,
  "/": 92,
  "\u2581Artikel": 93,
  "m": 94,
  "\u2581um": 95,
  "\u2581uit": 96,
  "\u2581aus": 97,
  "\u2581einer": 98,
  "\u2581hat": 99,
  "\u2581du": 100,
  "\u2581Kommission": 101,
  "\"": 102,
  "\u2581wie": 103,
  "\u2581bei": 104,
  "st": 105,
  "\u2581dit": 106,
  "\u2581auch": 107,
  "de": 108,
  "\u2581ver": 109,
  "\u2581dan": 110,
  "\u2581B": 111,
  "\u25811": 112,
  "\u2581hebben": 113,
  "\u2581Das": 114,
  "\u2581ge": 115,
  "\u2581ook": 116,
  "\u2581u": 117,
  "h": 118,
  "\u2581nach": 119,
  "\u2581naar": 120,
  "\u2581haben": 121,
  "\u2581alle": 122,
  "\u2581kan": 123,
  "\u2581einen": 124,
  "\u2581maar": 125,
  "\u2581moet": 126,
  "\u2581andere": 127,
  "\u2581L": 128,
  "\u2581da\u00df": 129,
  "\u2581we": 130,
  "\u2581durch": 131,
  "\u2581Er": 132,
  "\u2581Europese": 133,
  "\u2581kunnen": 134,
  "\u2581hier": 135,
  "_": 136,
  "\u2581kann": 137,
  "\u2581A": 138,
  "\u2581vom": 139,
  "\u2581Der": 140,
  "EG": 141,
  "\u2581_": 142,
  "\u2581C": 143,
  "\u2581so": 144,
  "\u2581Je": 145,
  "\u25812": 146,
  "BAR": 147,
  "\u2581moeten": 148,
  "\u2581Es": 149,
  "a": 150,
  "\u2581einem": 151,
  "\u2581geen": 152,
  "\u2581meer": 153,
  "\u2581wat": 154,
  "\u2581zum": 155,
  "\u2581vor": 156,
  "es": 157,
  "\u2581zal": 158,
  "\u2581'": 159,
  "\u2581Raad": 160,
  "\u2581dieser": 161,
  "\u2581k\u00f6nnen": 162,
  "\u2581be": 163,
  "\u2581bis": 164,
  "in": 165,
  ").": 166,
  "\u2581war": 167,
  "\u2581wenn": 168,
  "\u2581O": 169,
  "\u2581artikel": 170,
  "\u2581ze": 171,
  "\u2581EU": 172,
  "\u2581Europ\u00e4ischen": 173,
  "\u2581hij": 174,
  "\u2581nur": 175,
  "\u2581noch": 176,
  "\u2581diese": 177,
  "k": 178,
  "\u2581nog": 179,
  "\u2581M": 180,
  "\u2581hun": 181,
  "\u2581Wir": 182,
  "\u2581sein": 183,
  "\u2581Ja": 184,
  "b": 185,
  "\u2581Verordnung": 186,
  "\u25813": 187,
  "\u2581zij": 188,
  "\u2581D": 189,
  "\u2581onder": 190,
  "\u2581haar": 191,
  "\u2581zou": 192,
  "\u2581K": 193,
  "\u2581me": 194,
  "\u2581uns": 195,
  "),": 196,
  "\u2581wurde": 197,
  "\u2581T": 198,
  "\u2581am": 199,
  "\u2581zich": 200,
  "\u2581zo": 201,
  "te": 202,
  "\u2581mir": 203,
  "ing": 204,
  "S": 205,
  "o": 206,
  "\u2581heb": 207,
  "y": 208,
  "\u2581E": 209,
  "\u2581We": 210,
  "\u2581Mitgliedstaaten": 211,
  "\u2581Nr": 212,
  "\u2581H": 213,
  "\u2581al": 214,
  "\u2581Wat": 215,
  "\u2581aber": 216,
  "\u2581Ver": 217,
  "\u2581mich": 218,
  "\u2581I": 219,
  "\u2581unter": 220,
  "\u25814": 221,
  "\u2581Was": 222,
  "\u2581Gemeinschaft": 223,
  "\u2581Dat": 224,
  "\u2581nr": 225,
  "\u2581wij": 226,
  "\u2581ons": 227,
  "\u2581eines": 228,
  "\u2581Als": 229,
  "\u2581Be": 230,
  "\u2581lid": 231,
  "g": 232,
  "\u25815": 233,
  "\u2581ten": 234,
  "\u2581Du": 235,
  "\u2581man": 236,
  "\u2581Ge": 237,
  "\u2581Und": 238,
  "\u2581ben": 239,
  "\u2581En": 240,
  ".\"": 241,
  "l": 242,
  "\u2581b": 243,
  "\u2581P": 244,
  "\u2581mehr": 245,
  "\u2581G": 246,
  "\u2581m\u00fcssen": 247,
  "\u2581mijn": 248,
  "\u2581Absatz": 249,
  "\u2581lidstaten": 250,
  "ge": 251,
  "\u2581wel": 252,
  "den": 253,
  "\u2581anderen": 254,
  "\u2581Wie": 255,
  "\u2581Unie": 256,
  "\u2581tussen": 257,
  "\u2581wil": 258,
  "A": 259,
  "C": 260,
  "\u2581Parlement": 261,
  "\u2581j": 262,
  "\u2581habe": 263,
  "ten": 264,
  "\u2581F": 265,
  "\u2581na": 266,
  "\u2581Dit": 267,
  "\u2581keine": 268,
  "\u2581goed": 269,
  "\u2581Gemeenschap": 270,
  "\u2581jaar": 271,
  "\u2581Diese": 272,
  "\u2581Een": 273,
  "\u2581diesem": 274,
  "\u2581waren": 275,
  "\u2581Union": 276,
  "\u2581nu": 277,
  "\u2581Europa": 278,
  "ung": 279,
  "\u2581da": 280,
  "\u2581uw": 281,
  "\u2581zwischen": 282,
  "\u2581nieuwe": 283,
  "\u2581doen": 284,
  "\u2581hem": 285,
  "\u2581sowie": 286,
  "\u2581werd": 287,
  "\u2581Hij": 288,
  "\u2581V": 289,
  "\u2581unsere": 290,
  "\u25816": 291,
  "\u2581tegen": 292,
  "z": 293,
  "\u2581muss": 294,
  "\u2581Ze": 295,
  "\u2581zoals": 296,
  "\u2581a": 297,
  "\u2581ihre": 298,
  "\u2581waar": 299,
  "\u2581m": 300,
  "\u2581onze": 301,
  "\u2581Ein": 302,
  "\u2581wurden": 303,
  "ij": 304,
  "\u2581Ma\u00dfnahmen": 305,
  "\u2581Verordening": 306,
  "B": 307,
  "\u2581Deze": 308,
  "\u2581W": 309,
  "i": 310,
  "\u2581ihr": 311,
  "\u2581betreffende": 312,
  "\u2581Richtlinie": 313,
  "\u2581gaan": 314,
  "\u2581Europees": 315,
  "\u258110": 316,
  "\u2581d": 317,
  "\u2581maken": 318,
  "\u2581sollte": 319,
  "\u2581U": 320,
  "\u2581dich": 321,
  "ver": 322,
  "\u2581alleen": 323,
  "\u2581bin": 324,
  "\u2581J": 325,
  "\u2581Wenn": 326,
  "us": 327,
  "\u2581ab": 328,
  "le": 329,
  "\u2581Rates": 330,
  "et": 331,
  "\u2581maatregelen": 332,
  "\u2581alles": 333,
  "be": 334,
  "f": 335,
  "\u2581eerste": 336,
  "\u2581weg": 337,
  "\u2581dieses": 338,
  "\u2581N": 339,
  "\u2581gebruik": 340,
  "\u2581Rat": 341,
  "\u2581informatie": 342,
  "\u2581zullen": 343,
  "E": 344,
  "\u2581landen": 345,
  "\u2581sehr": 346,
  "\u2581R": 347,
  "ste": 348,
  "\u25817": 349,
  "\u2581gem\u00e4\u00df": 350,
  "\u2581inzake": 351,
  "\u2581af": 352,
  "\u2581mij": 353,
  "\u2581twee": 354,
  "\u2581toepassing": 355,
  "\u2581Da": 356,
  "\u2581Maar": 357,
  "N": 358,
  "\u2581ter": 359,
  "je": 360,
  "\u2581had": 361,
  "\u2581Entwicklung": 362,
  "\u2581Im": 363,
  "el": 364,
  "ig": 365,
  "an": 366,
  "\u2581An": 367,
  "\u2581dann": 368,
  "al": 369,
  "H": 370,
  "EN": 371,
  "\u2581toe": 372,
  "\u2581Herr": 373,
  "\u2581gaat": 374,
  "2": 375,
  "\u2581weet": 376,
  "\u2581stellen": 377,
  "\u2581ihn": 378,
  "\u2581binnen": 379,
  "\u2581k": 380,
  "\u2581heer": 381,
  "\u2581gibt": 382,
  "\u2581Op": 383,
  "\u2581veel": 384,
  "\u2581komen": 385,
  "\u25811.": 386,
  "p": 387,
  "\u2581dir": 388,
  "\u2581Zeit": 389,
  "\u2581ontwikkeling": 390,
  "\u2581Voor": 391,
  "\u2581per": 392,
  "\u2581DE": 393,
  "\u2581hoe": 394,
  "\u2581Rahmen": 395,
  "\u2581nationale": 396,
  "\u2581nodig": 397,
  "\u2581ihrer": 398,
  "ie": 399,
  "\u2581damit": 400,
  "re": 401,
  "\u2581gebied": 402,
  "\u2581verordening": 403,
  "\u2581c": 404,
  "\u2581Aber": 405,
  "\u2581immer": 406,
  "\u2581mensen": 407,
  "\u2581Ihre": 408,
  "\u2581staat": 409,
  "\u2581schon": 410,
  "\u2581tijd": 411,
  "\u2581diesen": 412,
  "ova": 413,
  "heid": 414,
  "\u2581ja": 415,
  "ter": 416,
  "\u25818": 417,
  "\u2581Unternehmen": 418,
  "ne": 419,
  "\u2581sollten": 420,
  "\u2581volgende": 421,
  "der": 422,
  "\u2581doch": 423,
  "\u25819": 424,
  "\u2581denen": 425,
  "\u2581will": 426,
  "\u2581wei\u00df": 427,
  "EU": 428,
  "\u2581seine": 429,
  "F": 430,
  "\u2581aantal": 431,
  "\u2581insbesondere": 432,
  "\u2581g": 433,
  "v": 434,
  "\u2581meine": 435,
  "\u258120": 436,
  "\u2581name": 437,
  "\u258112": 438,
  "\u2581markt": 439,
  "\u2581Ihnen": 440,
  "\u2581Anwendung": 441,
  "\u2581gegen": 442,
  "\u2581land": 443,
  "\u2581mag": 444,
  "\u2581Nein": 445,
  "\u2581betrekking": 446,
  "\u2581Recht": 447,
  "\u2581zien": 448,
  "\u2581kader": 449,
  "\u2581jedoch": 450,
  "\u2581bepaalde": 451,
  "\u00df": 452,
  "\u2581onderzoek": 453,
  "\u2581God": 454,
  "ou": 455,
  "\u2581jetzt": 456,
  "\u2581gut": 457,
  "se": 458,
  "\u2581t": 459,
  "\u2581Europ\u00e4ische": 460,
  "\u2581Sch": 461,
  "\u258115": 462,
  "\u2581Hoe": 463,
  "\u2581Kom": 464,
  "\u2581recht": 465,
  "\u2581Mit": 466,
  "\u2581iets": 467,
  "\u2581wieder": 468,
  "\u2581\u00e9\u00e9n": 469,
  "\u2581soll": 470,
  "\u2581grote": 471,
  "\u2581bent": 472,
  "\u2581w\u00fcrde": 473,
  "\u2581zwei": 474,
  "EEG": 475,
  "\u2581Menschen": 476,
  "\u2581leven": 477,
  "on": 478,
  "\u2581plaats": 479,
  "\u2581punt": 480,
  "]": 481,
  "\u2581gegevens": 482,
  "is": 483,
  "\u2581etwas": 484,
  "\u2581allen": 485,
  "\u2581omdat": 486,
  "\u2581wo": 487,
  "EWG": 488,
  "\u2581zonder": 489,
  "\u2581Wij": 490,
  "\u2581verslag": 491,
  "\u2581nemen": 492,
  "\u2581werk": 493,
  "sch": 494,
  "M": 495,
  "\u2581m\u00f6chte": 496,
  "\u2581EG": 497,
  "\u2581geht": 498,
  "\u2581Parlament": 499,
  "c": 500,
  "\u2581Bericht": 501,
  "\u2581Nach": 502,
  "T": 503,
  "\u2581Bei": 504,
  "\u2581steun": 505,
  "\u2581ohne": 506,
  "\u258130": 507,
  "\u2581hebt": 508,
  "\u2581machen": 509,
  "\u2581Jahr": 510,
  "\u2581Informationen": 511,
  "\u2581daar": 512,
  "\u2581deel": 513,
  "\u2581[": 514,
  "L": 515,
  "\u2581overeenkomstig": 516,
  "\u2581hast": 517,
  "\u2581men": 518,
  "\u2581echter": 519,
  "\u2581wanneer": 520,
  "\u2581betrokken": 521,
  "\u2581mogelijk": 522,
  "em": 523,
  "\u2581deine": 524,
  "w": 525,
  "\u2581Parlaments": 526,
  "\u2581gebruikt": 527,
  "\u2581bijlage": 528,
  "\u2581ob": 529,
  "sten": 530,
  "\u2581Na": 531,
  "\u2581programma": 532,
  "\u2581f": 533,
  "\u2581Voorzitter": 534,
  "\u2581&": 535,
  "lich": 536,
  "\u2581eens": 537,
  "\u2581ganz": 538,
  "um": 539,
  "\u2581ihm": 540,
  "W": 541,
  "\u00e9": 542,
  "gen": 543,
  "\u2581hatte": 544,
  "\u2581dient": 545,
  "\u2581geval": 546,
  "u": 547,
  "\u2581richtlijn": 548,
  "\u2581Auf": 549,
  "\u2581...": 550,
  "D": 551,
  ",\"": 552,
  "\u2581blz": 553,
  "\u2581financi\u00eble": 554,
  "\u2581denn": 555,
  "\u2581basis": 556,
  "\u2581on": 557,
  "\u2581h": 558,
  "\u2581Eine": 559,
  "\u2581mee": 560,
  "im": 561,
  "\u2581Anhang": 562,
  "\u2581geven": 563,
  "\u2581Frau": 564,
  "\u2581Nee": 565,
  "\u2581terug": 566,
  "ers": 567,
  "\u2581Teil": 568,
  "\u2581Art": 569,
  "\u2581willen": 570,
  "\u2581Alle": 571,
  "\u2581Pr\u00e4sident": 572,
  "G": 573,
  "\u2581Hier": 574,
  "\u2581dus": 575,
  "\u2581zeggen": 576,
  "\u2581tun": 577,
  "\u2581ihren": 578,
  "1": 579,
  "\u2581economische": 580,
  "\u2581vastgesteld": 581,
  "\u2581Comit\u00e9": 582,
  "\u2581dag": 583,
  "\u2581dies": 584,
  "\u2581Ihr": 585,
  "\u2581sagen": 586,
  "\u2581II": 587,
  "\u2581F\u00fcr": 588,
  "\u2581Ab": 589,
  "\u2581Jahre": 590,
  "\u2581s": 591,
  "\u2581mg": 592,
  "ke": 593,
  "\u258111": 594,
  "\u2581Entscheidung": 595,
  "\u2581eigen": 596,
  "\u2581komt": 597,
  "\u2581Sicherheit": 598,
  "\u2581Aus": 599,
  "3": 600,
  "\u2581mal": 601,
  "\u2581sociale": 602,
  "\u2581voorstel": 603,
  "\u2581So": 604,
  "\u2581verband": 605,
  "\u2581houden": 606,
  "\u258118": 607,
  "\u2581samenwerking": 608,
  "\u2581seiner": 609,
  "\u2581jullie": 610,
  "\u2581Met": 611,
  "\u2581l": 612,
  "\u2581verschillende": 613,
  "\u258119": 614,
  "\u2581Verdrag": 615,
  "\u2581Zo": 616,
  "\u2581Vor": 617,
  "\u2581brengen": 618,
  "\u2581kunt": 619,
  "\u2581weer": 620,
  "K": 621,
  "\u2581Lid": 622,
  "\u2581waarin": 623,
  "\u2581welke": 624,
  "\u2581drie": 625,
  "\u2581selbst": 626,
  "\u2581zeer": 627,
  "\u2581Verfahren": 628,
  "\u2581derde": 629,
  "\u2581beleid": 630,
  "\u2581Bij": 631,
  "\u2581VAN": 632,
  "\u2581zouden": 633,
  "\u2581r": 634,
  "\u2581Dank": 635,
  "ar": 636,
  "\u2581belang": 637,
  "\u2581Al": 638,
  "\u2581mein": 639,
  "amp": 640,
  "\u2581neue": 641,
  "\u2581Durchf\u00fchrung": 642,
  "\u2581Richtlijn": 643,
  "\u2581wereld": 644,
  "\u2581Daten": 645,
  "P": 646,
  "\u25811,": 647,
  "\u2581bereits": 648,
  "\u2581z": 649,
  "\u2581Jahren": 650,
  "\u2581Vorschlag": 651,
  "\u2581Gott": 652,
  "\u2581neuen": 653,
  "lichen": 654,
  "\u258114": 655,
  "\u258113": 656,
  "\u2581laten": 657,
  "\u2581lidstaat": 658,
  "V": 659,
  "R": 660,
  "\u2581heute": 661,
  "\u2581viel": 662,
  "\u2581nichts": 663,
  "\u2581Zusammenarbeit": 664,
  "op": 665,
  "\u2581betreft": 666,
  "\u2581hen": 667,
  "\u2581weil": 668,
  "\u2581pro": 669,
  "\u2581EUR": 670,
  "\u2581sei": 671,
  "\u2581w\u00e4hrend": 672,
  "\u2581internationale": 673,
  "\u2581dienen": 674,
  "\u2581goede": 675,
  "\u2581Fall": 676,
  "\u2581Welt": 677,
  "\u2581Bereich": 678,
  "aus": 679,
  "\u2581zei": 680,
  "\u2581toch": 681,
  "\u2581/": 682,
  "ay": 683,
  "\u258116": 684,
  "\u2581k\u00f6nnte": 685,
  "\u2581tijdens": 686,
  "\u2581drei": 687,
  "\u2581vier": 688,
  "\u2581bepalingen": 689,
  "\u2581uitvoering": 690,
  "\u2581elke": 691,
  "\u2581w\u00e4re": 692,
  "ische": 693,
  "\u2581darauf": 694,
  "\u2581producten": 695,
  "\u2581ihnen": 696,
  "\u2581kleine": 697,
  "\u2581Zu": 698,
  "\u2581Arbeit": 699,
  "\u2581zur\u00fcck": 700,
  "\u2581Tag": 701,
  "\u2581Frage": 702,
  "\u2581vast": 703,
  "\u2581zorgen": 704,
  "at": 705,
  "\u2581Nicht": 706,
  "\u2581besluit": 707,
  "\u258117": 708,
  "\u2581weten": 709,
  "it": 710,
  "\u2581sehen": 711,
  "\u258125": 712,
  "liche": 713,
  "\u2581e": 714,
  "\u2581Land": 715,
  "\u2581kosten": 716,
  "\u25812,": 717,
  "ch": 718,
  "\u2581Mittel": 719,
  "\u2581werde": 720,
  "\u2581steeds": 721,
  "\u2581heel": 722,
  "\u2581grond": 723,
  "\u2581ervan": 724,
  "\u2581genannten": 725,
  "\u25812004": 726,
  "\u2581Re": 727,
  "\u2581Wirtschafts": 728,
  "ia": 729,
  "\u2581Leben": 730,
  "\u2581Om": 731,
  "\u2581p": 732,
  "\u2581kein": 733,
  "\u2581via": 734,
  "\u2581dazu": 735,
  "\u2581blijven": 736,
  "\u2581rekening": 737,
  "\u2581sondern": 738,
  "\u2581indien": 739,
  "\u2581vraag": 740,
  "\u2581tweede": 741,
  "\u2581He": 742,
  "di": 743,
  "\u2581mu\u00df": 744,
  "\u2581huis": 745,
  "\u2581un": 746,
  "\u2581europ\u00e4ischen": 747,
  "ut": 748,
  "\u2581ga": 749,
  "\u2581wissen": 750,
  "\u2022": 751,
  "\u258124": 752,
  "\u2581diensten": 753,
  "ur": 754,
  "\u2581miljoen": 755,
  "\u2581Mann": 756,
  "\u2581gedaan": 757,
  "\u2581genomen": 758,
  "\u2581gemaakt": 759,
  "\u25812005": 760,
  "chen": 761,
  "\u2581technische": 762,
  "\u2581zelf": 763,
  "\u2581her": 764,
  "\u2581communautaire": 765,
  "\u2581kommen": 766,
  "\u2581daf\u00fcr": 767,
  "\u2581Wo": 768,
  "\u2581Ho": 769,
  "lo": 770,
  "\u2581slechts": 771,
  "\u2581Waarom": 772,
  "me": 773,
  "O": 774,
  "\u2581hand": 775,
  "\u2581Z": 776,
  "\u2581lang": 777,
  "\u2581anders": 778,
  "\u2581finden": 779,
  "\u25812.": 780,
  "und": 781,
  "\u2581einfach": 782,
  "end": 783,
  "tel": 784,
  "\u2581lange": 785,
  "\u2581Waar": 786,
  "\u2581Is": 787,
  "\u25812006": 788,
  "\u2581hin": 789,
  "\u2581Um": 790,
  "\u2581viele": 791,
  "\u2581volgens": 792,
  "\u2581behandeling": 793,
  "\u2581milieu": 794,
  "\u2581december": 795,
  "\u2581gebracht": 796,
  "\u2581re": 797,
  "ige": 798,
  "\u2581net": 799,
  "\u2581Verenigd": 800,
  "\u2581krijgen": 801,
  "\u2581altijd": 802,
  "\u258121": 803,
  "\u2581vinden": 804,
  "ieren": 805,
  "\u2581Zij": 806,
  "\u258122": 807,
  "\u2581Dezember": 808,
  "\u2581gehen": 809,
  "\u2581waarbij": 810,
  "\u2581middelen": 811,
  "\u2581lassen": 812,
  "\u2581DER": 813,
  "ve": 814,
  "to": 815,
  "\u2581gilt": 816,
  "\u2581also": 817,
  "\u2581weiter": 818,
  "ol": 819,
  "man": 820,
  "\u2581bedoelde": 821,
  "\u2581wirklich": 822,
  "\u2581davon": 823,
  "\u2581Patienten": 824,
  "\u2581auto": 825,
  "\u2581Euro": 826,
  "\u2581innerhalb": 827,
  "\u2581Mitgliedstaat": 828,
  "\u25812000": 829,
  "\u2581advies": 830,
  "\u2581Haus": 831,
  "\u2581euch": 832,
  "\u2581Kosten": 833,
  "land": 834,
  "\u2581echt": 835,
  "of": 836,
  "\u2581Ziel": 837,
  "\u2581Am": 838,
  "\u2581niveau": 839,
  "\u2581Niet": 840,
  "\u2581duidelijk": 841,
  "\u2581einige": 842,
  "\u2581100": 843,
  "\u2581Markt": 844,
  "am": 845,
  "\u2581Stellungnahme": 846,
  "\u2581nooit": 847,
  "\u2581zusammen": 848,
  "\u2581Ist": 849,
  "\u2581minder": 850,
  "\u2581handel": 851,
  "\u2581beste": 852,
  "ry": 853,
  "\u2581bescherming": 854,
  "\u2581Auto": 855,
  "ken": 856,
  "\u2581Namen": 857,
  "or": 858,
  "\u2581kinderen": 859,
  "\u2581wollen": 860,
  "\u2581sch": 861,
  "ex": 862,
  "\u2581waarvan": 863,
  "\u2581denk": 864,
  "\u2581zodat": 865,
  "\u2581beter": 866,
  "\u2581voorwaarden": 867,
  "\u2581Kinder": 868,
  "\u2581Ga": 869,
  "\u2581wijze": 870,
  "\u2581PB": 871,
  "\u2581los": 872,
  "\u2581Personen": 873,
  "eer": 874,
  "\u2581v": 875,
  "\u2581problemen": 876,
  "\u25812002": 877,
  "\u2581veiligheid": 878,
  "\u2581kon": 879,
  "\u2581\u00c4nderung": 880,
  "\u2581Pro": 881,
  "\u2581werking": 882,
  "ed": 883,
  "ow": 884,
  "\u2581macht": 885,
  "\u2581laatste": 886,
  "meenschappelijke": 887,
  "\u2581Unterst\u00fctzung": 888,
  "\u2581ersten": 889,
  "\u2581daher": 890,
  "\u2581ondernemingen": 891,
  "acht": 892,
  "\u2581vragen": 893,
  "\u2581samen": 894,
  "\u2581kom": 895,
  "\u2581Mo": 896,
  "\u2581paar": 897,
  "\u2581seinen": 898,
  "\u2581waarop": 899,
  "\u2581Dies": 900,
  "\u2581Beh\u00f6rden": 901,
  "\u2581specifieke": 902,
  "\u258150": 903,
  "\u2581leden": 904,
  "\u2581nationalen": 905,
  "\u25812003": 906,
  "\u2581uur": 907,
  "svorschriften": 908,
  "gt": 909,
  "\u2581situatie": 910,
  "I": 911,
  "na": 912,
  "\u2581w": 913,
  "4": 914,
  "\u2581Mijnheer": 915,
  "\u2581Unter": 916,
  "\u2581mei": 917,
  "\u2581beim": 918,
  "\u2581opgenomen": 919,
  "\u2581belangrijke": 920,
  "ster": 921,
  "\u2581Bestimmungen": 922,
  "\u2581groot": 923,
  "\u2581Zusammenhang": 924,
  "\u2581nie": 925,
  "\u2581Juli": 926,
  "ck": 927,
  "ende": 928,
  "\u2581Do": 929,
  "\u2581ging": 930,
  "\u2581Lage": 931,
  "eren": 932,
  "\u2581toen": 933,
  "\u2581Schutz": 934,
  "\u2581Ro": 935,
  "\u258131": 936,
  "\u2581werken": 937,
  "\u2581niets": 938,
  "\u2581geben": 939,
  "\u2581verder": 940,
  "\u2581elkaar": 941,
  "\u2581hele": 942,
  "\u2581seit": 943,
  "\u2581achter": 944,
  "\u2581risico": 945,
  "\u2581staan": 946,
  "\u2581rechten": 947,
  "\u2581bitte": 948,
  "\u2581controle": 949,
  "ul": 950,
  "ab": 951,
  "\u2581algemene": 952,
  "\u25812007": 953,
  "\u2581Herrn": 954,
  "\u2581h\u00e4tte": 955,
  "\u2581iemand": 956,
  "\u2581vaststelling": 957,
  "\u2581enkele": 958,
  "\u2581sollen": 959,
  "ok": 960,
  "\u2581zelfs": 961,
  "\u2581maanden": 962,
  "\u2581pati\u00ebnten": 963,
  "\u2581activiteiten": 964,
  "\u2581water": 965,
  "\u00fc": 966,
  "\u2581Mar": 967,
  "\u2581i": 968,
  "\u2581Jo": 969,
  "\u2581periode": 970,
  "\u2581begroting": 971,
  "\u2581Ar": 972,
  "\u2581dezelfde": 973,
  "\u2581kommt": 974,
  "\u2581gesagt": 975,
  "\u2581daarvan": 976,
  "men": 977,
  "\u2581Juni": 978,
  "\u2581erhalten": 979,
  "bel": 980,
  "\u2581dergelijke": 981,
  "\u2581m\u00f6glich": 982,
  "\u2581mogen": 983,
  "\u2581St": 984,
  "\u2581Man": 985,
  "\u2581dood": 986,
  "\u258123": 987,
  "\u2581laat": 988,
  "il": 989,
  "\u2581sicher": 990,
  "\u2581even": 991,
  "\u2581reden": 992,
  "\u2581EN": 993,
  "00": 994,
  "J": 995,
  "\u2581doel": 996,
  "\u2581Vorschriften": 997,
  "hab": 998,
  "\u2581gezien": 999,
  "\u2581buiten": 1000,
  "\u2581overeenkomst": 1001,
  "\u2581wetgeving": 1002,
  "Staten": 1003,
  "\u2581waarde": 1004,
  "\u2581Van": 1005,
  "\u2581beide": 1006,
  "\u2581Fragen": 1007,
  "ker": 1008,
  "\u2581Warum": 1009,
  "\u2581oog": 1010,
  "\u2581Le": 1011,
  "iert": 1012,
  "\u2581wijziging": 1013,
  "\u25813.": 1014,
  "\u2581energie": 1015,
  "\u2581La": 1016,
  "\u2581elk": 1017,
  "\u2581sector": 1018,
  "\u2581helpen": 1019,
  "\u2581Ende": 1020,
  "au": 1021,
  "\u2581Umwelt": 1022,
  "isch": 1023,
  "\u2581Wettbewerb": 1024,
  "\u2581autoriteiten": 1025,
  "\u2581gebruiken": 1026,
  "\u2581Grundlage": 1027,
  "\u2581Problem": 1028,
  "\u2581regio": 1029,
  "ern": 1030,
  "\u2581Grund": 1031,
  "\u2581\u00dcber": 1032,
  "\u2581personen": 1033,
  "\u2581bzw": 1034,
  "\u2581gehouden": 1035,
  "\u2581gemacht": 1036,
  "\u2581welche": 1037,
  "\u2581allem": 1038,
  "\u25812001": 1039,
  "\u2581Wanneer": 1040,
  "\u2581gegen\u00fcber": 1041,
  "\u2581juni": 1042,
  "\u2581kennis": 1043,
  "Z": 1044,
  "\u25810": 1045,
  "ach": 1046,
  "\u2581probleem": 1047,
  "\u2581sagte": 1048,
  "\u2581gegeven": 1049,
  "\u2581doet": 1050,
  "\u2581Frauen": 1051,
  "\u2581Weg": 1052,
  "ton": 1053,
  "\u2581maakt": 1054,
  "\u2581aller": 1055,
  "\u2581interne": 1056,
  "ine": 1057,
  "\u2581bedoeld": 1058,
  "est": 1059,
  "\u2581Hand": 1060,
  "\u2581Wasser": 1061,
  "\u2581Bedeutung": 1062,
  ");": 1063,
  "\u2581zaken": 1064,
  "co": 1065,
  "\u2581Beispiel": 1066,
  "\u2581Hilfe": 1067,
  "\u2581Behandlung": 1068,
  "\u258128": 1069,
  "\u2581Mal": 1070,
  "\u2581Vertrag": 1071,
  "\u2581manier": 1072,
  "\u2581darf": 1073,
  "\u2581ex": 1074,
  "ly": 1075,
  "om": 1076,
  "\u25813,": 1077,
  "\u2581geld": 1078,
  "\u2581zeker": 1079,
  "\u2581zowel": 1080,
  "\u2581Waren": 1081,
  "\u2581Bezug": 1082,
  "\u2581vrouwen": 1083,
  "\u2581politieke": 1084,
  "\u2581Gut": 1085,
  "\u2581erforderlich": 1086,
  "\u2581vorm": 1087,
  "\u2581L\u00e4ndern": 1088,
  "\u2581Buchstabe": 1089,
  "\u2581jaren": 1090,
  "\u2581Verwaltung": 1091,
  "\u2581toegang": 1092,
  "\u2581Bedingungen": 1093,
  "\u2581wegen": 1094,
  "zu": 1095,
  "\u2581keer": 1096,
  "\u2581Staaten": 1097,
  "\u2581vooral": 1098,
  "\u2581vrij": 1099,
  "\u2581weniger": 1100,
  "ja": 1101,
  "\u2581folgende": 1102,
  "\u2581gevallen": 1103,
  "ir": 1104,
  "\u2581gebieden": 1105,
  "com": 1106,
  "\u25811999": 1107,
  "\u2581Vereinigte": 1108,
  "\u2581dar\u00fcber": 1109,
  "\u25812008": 1110,
  "\u2581bijvoorbeeld": 1111,
  "\u2581L\u00e4nder": 1112,
  "\u2581overeenstemming": 1113,
  "\u2581III": 1114,
  "\u2581beiden": 1115,
  "\u2581belangrijk": 1116,
  "ist": 1117,
  "\u2581Mijn": 1118,
  "\u2581ervoor": 1119,
  "\u2581Energie": 1120,
  "ick": 1121,
  "ho": 1122,
  "zie": 1123,
  "ic": 1124,
  "\u2581dagen": 1125,
  "\u2581enige": 1126,
  "\u2581besteht": 1127,
  "\u2581Indien": 1128,
  "os": 1129,
  "\u2581snel": 1130,
  "\u2581Dan": 1131,
  "\u2581keinen": 1132,
  "\u2581liegt": 1133,
  "Ook": 1134,
  "\u2581weitere": 1135,
  "\u2581Weise": 1136,
  "bar": 1137,
  "\u2581hoofd": 1138,
  "\u2581regionale": 1139,
  "\u2581naam": 1140,
  "\u2581volgt": 1141,
  "\u2581einmal": 1142,
  "\u2581bijzonder": 1143,
  "\u2581ABl": 1144,
  "u\u00df": 1145,
  "\u2581Daarom": 1146,
  "\u2581hadden": 1147,
  "\u2581Seite": 1148,
  "\u2581termijn": 1149,
  "\u2581+": 1150,
  "\u258127": 1151,
  "\u2581Dieser": 1152,
  "\u2581procedure": 1153,
  "\u2581voorstellen": 1154,
  "\u2581wollte": 1155,
  "ta": 1156,
  "\u2581steht": 1157,
  "\u2581vormen": 1158,
  "un": 1159,
  "len": 1160,
  "\u2581Form": 1161,
  "\u2581aufgrund": 1162,
  "her": 1163,
  "\u2581rol": 1164,
  "\u2581stand": 1165,
  "\u2581B\u00fcrger": 1166,
  "\u2581bevoegde": 1167,
  "\u2581systeem": 1168,
  "\u2581dabei": 1169,
  "\u2581vrouw": 1170,
  "wel": 1171,
  "\u2581volledig": 1172,
  "\u2581Dann": 1173,
  "lief": 1174,
  "so": 1175,
  "\u2581Geld": 1176,
  "\u2581reeds": 1177,
  "\u2581gewijzigd": 1178,
  "\u2581Stadt": 1179,
  "\u2581letzten": 1180,
  "\u2581huidige": 1181,
  "\u2581(1)": 1182,
  "\u2581System": 1183,
  "\u2581besser": 1184,
  "\u2581einschlie\u00dflich": 1185,
  "\u2581gro\u00dfe": 1186,
  "\u2581bestaat": 1187,
  "\u2581gewoon": 1188,
  "\u2581Forschung": 1189,
  "\u25812009": 1190,
  "\u2581Angaben": 1191,
  "\u2581middel": 1192,
  "U": 1193,
  "\u2581leiden": 1194,
  "\u2581F\u00f6rderung": 1195,
  "zen": 1196,
  "\u2581(2)": 1197,
  "\u2581zin": 1198,
  "jes": 1199,
  "\u2581Regierung": 1200,
  "gel": 1201,
  "\u2581meest": 1202,
  "\u2581stelt": 1203,
  "\u2581f\u00fchren": 1204,
  "j": 1205,
  "\u2581invoer": 1206,
  "ek": 1207,
  "\u2581einde": 1208,
  "\u2581landbouw": 1209,
  "\u2581Daar": 1210,
  "\u2581januari": 1211,
  "ale": 1212,
  "\u2581zie": 1213,
  "\u2581Aan": 1214,
  "ger": 1215,
  "\u2581bepaald": 1216,
  "\u2581nieuw": 1217,
  "\u2581Ent": 1218,
  "\u2581denken": 1219,
  "\u2581Umsetzung": 1220,
  "\u2581prijs": 1221,
  "die": 1222,
  "ag": 1223,
  "\u2581want": 1224,
  "\u2581productie": 1225,
  "\u2581ont": 1226,
  "\u2581zwar": 1227,
  "\u2581Gebiet": 1228,
  "\u2581Bank": 1229,
  "\u2581km": 1230,
  "van": 1231,
  "ma": 1232,
  "\u2581stehen": 1233,
  "\u258140": 1234,
  "\u2581Januar": 1235,
  "\u2581Heb": 1236,
  "\u2581juli": 1237,
  "\u2581gesteld": 1238,
  "\u2581000": 1239,
  "\u2581Verwendung": 1240,
  "\u2581Auswirkungen": 1241,
  "ik": 1242,
  "x": 1243,
  "art": 1244,
  "\u2581nun": 1245,
  "\u2581geeft": 1246,
  "\u2581verzoek": 1247,
  "\u00e4": 1248,
  "\u2581Wer": 1249,
  "\u2581gevolg": 1250,
  "\u2581doelstellingen": 1251,
  "\u2581product": 1252,
  "\u2581betreffenden": 1253,
  "\u2581gest\u00fctzt": 1254,
  "\u2581verschiedenen": 1255,
  "ent": 1256,
  "\u2581Christ": 1257,
  "\u2581instellingen": 1258,
  "\u2581regels": 1259,
  "\u258126": 1260,
  "\u2581bestimmte": 1261,
  "\u2581algemeen": 1262,
  "\u2581erst": 1263,
  "af": 1264,
  "\u2581Also": 1265,
  "as": 1266,
  "\u25812010": 1267,
  "\u2581bestaande": 1268,
  "\u2581kennen": 1269,
  "ook": 1270,
  "\u2581gevolgen": 1271,
  "\u2581ent": 1272,
  "\u2581zaak": 1273,
  "\u2581nehmen": 1274,
  "bare": 1275,
  "\u2581Programm": 1276,
  "\u2581Sp": 1277,
  "ant": 1278,
  "ze": 1279,
  "\u2581Kraft": 1280,
  "\u2581kwaliteit": 1281,
  "\u2581gerade": 1282,
  "uit": 1283,
  "\u2581jemand": 1284,
  "\u2581terwijl": 1285,
  "\u2581Jezus": 1286,
  "\u2581ligt": 1287,
  "\u2581biedt": 1288,
  "\u2581Ch": 1289,
  "\u2581Spiel": 1290,
  "\u2581geh\u00f6rt": 1291,
  "\u2581fest": 1292,
  "\u2581geweest": 1293,
  "ro": 1294,
  "\u2581Alles": 1295,
  "Da": 1296,
  "ment": 1297,
  "\u2581licht": 1298,
  "\u2581mening": 1299,
  "\u2581voorschriften": 1300,
  "\u2581Hall": 1301,
  "\u2581beschikbaar": 1302,
  "ler": 1303,
  "dat": 1304,
  "\u2581bietet": 1305,
  "th": 1306,
  "\u2581ander": 1307,
  "\u2581Nu": 1308,
  "\u2581doe": 1309,
  "\u2581Ebene": 1310,
  "per": 1311,
  "\u2581folgenden": 1312,
  "\u2581ge\u00e4ndert": 1313,
  "meenschappelijk": 1314,
  "\u2581jeder": 1315,
  "\u2581werknemers": 1316,
  "\u2581meiner": 1317,
  "\u2581ihrem": 1318,
  "\u258129": 1319,
  "\u2581beheer": 1320,
  "he": 1321,
  "\u2581aanzien": 1322,
  "\u2581vielleicht": 1323,
  "\u2581prijzen": 1324,
  "\u2581meinen": 1325,
  "\u2581Ten": 1326,
  "\u2581resultaten": 1327,
  "ation": 1328,
  "id": 1329,
  "\u2581Gottes": 1330,
  "\u2581euro": 1331,
  "\u2581Mai": 1332,
  "\u2581feit": 1333,
  "\u2581noodzakelijk": 1334,
  "\u2581gezegd": 1335,
  "\u2581vervoer": 1336,
  "\u2581Hof": 1337,
  "ein": 1338,
  "\u2581hulp": 1339,
  "\u2581concurrentie": 1340,
  "los": 1341,
  "\u2581Probleme": 1342,
  "\u2581k\u00f6nnten": 1343,
  "\u2581\u00f6ffentlichen": 1344,
  "\u2581werkgelegenheid": 1345,
  "\u2581vanaf": 1346,
  "ion": 1347,
  "ischen": 1348,
  "\u2581zust\u00e4ndigen": 1349,
  "\u2581niemand": 1350,
  "\u2581partijen": 1351,
  "\u2581voorzitter": 1352,
  "\u2581daarom": 1353,
  "\u2581dingen": 1354,
  "\u2581Jesu": 1355,
  "\u2581vaak": 1356,
  "\u2581Co": 1357,
  "kt": 1358,
  "tei": 1359,
  "\u2581solche": 1360,
  "\u2581lijst": 1361,
  "mo": 1362,
  "ier": 1363,
  "\u2581allemaal": 1364,
  "\u2581Ziele": 1365,
  "\u2581wilde": 1366,
  "\u2581w\u00fcrden": 1367,
  "\u2581seinem": 1368,
  "\u2581bedrijven": 1369,
  "\u2581Un": 1370,
  "\u2581v\u00f3\u00f3r": 1371,
  "up": 1372,
  "\u2581Erzeugnisse": 1373,
  "\u2581Verhandlungen": 1374,
  "\u2581acht": 1375,
  "\u2581daran": 1376,
  "igen": 1377,
  "auf": 1378,
  "\u2581Meer": 1379,
  "\u2581wilt": 1380,
  "\u2581gemeinsamen": 1381,
  "bo": 1382,
  "sa": 1383,
  "\u2581helfen": 1384,
  "\u2581erop": 1385,
  "\u2581Auch": 1386,
  "\u25814.": 1387,
  "\u2581Rolle": 1388,
  "\u2581zit": 1389,
  "\u2581regeling": 1390,
  "\u2581Preis": 1391,
  "\u2581goederen": 1392,
  "\u2581Republik": 1393,
  "tje": 1394,
  "dem": 1395,
  "\u2581bieden": 1396,
  "De": 1397,
  "ES": 1398,
  "\u2581M\u00f6glichkeit": 1399,
  "\u2581dort": 1400,
  "\u2581oktober": 1401,
  "\u2581Dus": 1402,
  "\u2581Sinne": 1403,
  "\u2581Besch\u00e4ftigung": 1404,
  "\u2581klar": 1405,
  "\u2581Beschluss": 1406,
  "DE": 1407,
  "\u2581Oktober": 1408,
  "\u2581Goed": 1409,
  "\u2581hinaus": 1410,
  "\u2581maart": 1411,
  "\u2581.\"": 1412,
  "\u2581morgen": 1413,
  "ring": 1414,
  "\u2581Vater": 1415,
  "werk": 1416,
  "\u2581Verbraucher": 1417,
  "\u2581sch\u00f6n": 1418,
  "\u2581dienst": 1419,
  "\u2581misschien": 1420,
  "\u2581Staten": 1421,
  "ven": 1422,
  "\u2581Gra": 1423,
  "\u2581glaube": 1424,
  "ha": 1425,
  "schlu\u00df": 1426,
  "\u2581etwa": 1427,
  "ap": 1428,
  "\u2581d\u00fcrfen": 1429,
  "\u2581hart": 1430,
  "sche": 1431,
  "\u2581voorkomen": 1432,
  "\u2581beschikking": 1433,
  "\u2581bestimmten": 1434,
  "\u2581M\u00e4rz": 1435,
  "\u2581festgelegt": 1436,
  "\u2581verwendet": 1437,
  "\u2581artikelen": 1438,
  "\u2581zegt": 1439,
  "\u2581Nummer": 1440,
  "\u2581bestaan": 1441,
  "son": 1442,
  "\u2581vriend": 1443,
  "wagen": 1444,
  "ko": 1445,
  "\u2581toekomst": 1446,
  "\u2581China": 1447,
  "\u2581gemeinsame": 1448,
  "\u2581geworden": 1449,
  "\u2581wichtig": 1450,
  "schaft": 1451,
  "\u2581Freund": 1452,
  "\u2581gro\u00dfen": 1453,
  "\u2581Regionen": 1454,
  "\u2581bringen": 1455,
  "\u2581Hinblick": 1456,
  "\u2581waarom": 1457,
  "\u2581alsmede": 1458,
  "ad": 1459,
  "\u2581ingediend": 1460,
  "):": 1461,
  "\u2581aandacht": 1462,
  "\u2581wer": 1463,
  "\u2581hatten": 1464,
  "eu": 1465,
  "\u2581Bar": 1466,
  "heit": 1467,
  "\u2581Ort": 1468,
  "\u2581goedgekeurd": 1469,
  "\u2581graag": 1470,
  "\u2581burgers": 1471,
  "\u2581Wil": 1472,
  "\u2581Regelung": 1473,
  "\u2581Mio": 1474,
  "\u2581Ra": 1475,
  "\u2581bleiben": 1476,
  "\u2581enth\u00e4lt": 1477,
  "aan": 1478,
  "\u2581sp": 1479,
  "\u2581hoge": 1480,
  "\u2581IN": 1481,
  "\u2581Koninkrijk": 1482,
  "\u2581uitgevoerd": 1483,
  "\u2581erg": 1484,
  "ouw": 1485,
  "ling": 1486,
  "\u2581gelijk": 1487,
  "\u2581Ausschusses": 1488,
  "\u2581Laat": 1489,
  "\u2581gelten": 1490,
  "net": 1491,
  "\u2581datum": 1492,
  "\u2581groei": 1493,
  "\u2581Zugang": 1494,
  "\u2581Uit": 1495,
  "\u2581dessen": 1496,
  "\u2581totale": 1497,
  "\u2581moment": 1498,
  "\u2581financiering": 1499,
  "\u2581onderwijs": 1500,
  "\u2581la": 1501,
  "innen": 1502,
  "\u2581Ausschuss": 1503,
  "\u2581konnte": 1504,
  "\u2581X": 1505,
  "\u2581Leute": 1506,
  "\u2581Handel": 1507,
  "\u2581Door": 1508,
  "\u2581treffen": 1509,
  "\u2581Industrie": 1510,
  "Misschien": 1511,
  "\u25812011": 1512,
  "recht": 1513,
  "\u2581stad": 1514,
  "\u2581Abkommen": 1515,
  "\u2581hetgeen": 1516,
  "\u2581mindestens": 1517,
  "\u2581genau": 1518,
  "\u2581bedrag": 1519,
  "\u2581the": 1520,
  "\u2581Ben": 1521,
  "wirtschaftlichen": 1522,
  "\u2581blijft": 1523,
  "\u2581*": 1524,
  "\u2581meisten": 1525,
  "cht": 1526,
  "\u2581Pr\u00fcfung": 1527,
  "\u2581sowohl": 1528,
  "\u2581Aussch": 1529,
  "\u2581Ihren": 1530,
  "$": 1531,
  "\u2581stellt": 1532,
  "da": 1533,
  "\u2581belangrijkste": 1534,
  "\u2581besonders": 1535,
  "\u2581Verbesserung": 1536,
  "\u2581Ergebnisse": 1537,
  "\u2581handelt": 1538,
  "bei": 1539,
  "\u25815.": 1540,
  "\u2581Anforderungen": 1541,
  "5": 1542,
  "\u2581H\u00f6he": 1543,
  "\u2581vandaag": 1544,
  "\u2581regering": 1545,
  "ei": 1546,
  ".000": 1547,
  "\u2581K\u00f6nigreich": 1548,
  "\u2581Sa": 1549,
  "\u2581vader": 1550,
  "\u2581onderneming": 1551,
  "\u2581internationalen": 1552,
  "\u2581voldoen": 1553,
  "\u2581Geen": 1554,
  "\u2581Bitte": 1555,
  "\u2581jedem": 1556,
  "\u2581goedkeuring": 1557,
  "\u2581Beihilfe": 1558,
  "\u2581soort": 1559,
  "\u2581Zeitpunkt": 1560,
  "\u2581beginnen": 1561,
  "\u2581Abschnitt": 1562,
  "\u2581uitvoer": 1563,
  "sh": 1564,
  "ungen": 1565,
  "\u2581Te": 1566,
  "\u2581hoop": 1567,
  "\u2581all": 1568,
  "\u2581voeren": 1569,
  "go": 1570,
  "stand": 1571,
  "\u2581bevat": 1572,
  "\u2581wohl": 1573,
  "yl": 1574,
  "ra": 1575,
  "\u2581Overwegende": 1576,
  "\u2581einzelnen": 1577,
  "programma": 1578,
  "\u2581orde": 1579,
  "\u2581november": 1580,
  "\u2581voorzien": 1581,
  "\u2581gedurende": 1582,
  "\u2581geloof": 1583,
  "\u2581Politik": 1584,
  "0": 1585,
  "\u2581Zukunft": 1586,
  "\u2581sozialen": 1587,
  "\u2581betekent": 1588,
  "\u2581sa": 1589,
  "\u2581delen": 1590,
  "\u2581geleden": 1591,
  "\u25812013": 1592,
  "\u2581\u20ac": 1593,
  "elijk": 1594,
  "\u25811998": 1595,
  "\u2581stoffen": 1596,
  "\u2581November": 1597,
  "PB": 1598,
  "\u2581Preise": 1599,
  "\u2581richtig": 1600,
  "\u2581projecten": 1601,
  "\u2581Millionen": 1602,
  "\u258160": 1603,
  "\u2581Qualit\u00e4t": 1604,
  "\u2581houdt": 1605,
  "\u2581sommige": 1606,
  "mer": 1607,
  "\u25812012": 1608,
  "\u2581ongeveer": 1609,
  "\u2581getroffen": 1610,
  "\u2581DIE": 1611,
  "\u2581(\"": 1612,
  "\u2581gesehen": 1613,
  "\u2581dein": 1614,
  "\u2581ontvangen": 1615,
  "\u2581erste": 1616,
  "\u2581mevrouw": 1617,
  "\u2581tekst": 1618,
  "\u2581mm": 1619,
  "Y": 1620,
  "\u2581gleich": 1621,
  "Be": 1622,
  "\u2581Finanzierung": 1623,
  "\u2581kwam": 1624,
  "10": 1625,
  "min": 1626,
  "\u2581gericht": 1627,
  "\u25814,": 1628,
  "\u2581groep": 1629,
  "bi": 1630,
  "\u2581Mutter": 1631,
  "\u2581The": 1632,
  "\u2581vijf": 1633,
  "\u2581namelijk": 1634,
  "\u2581waarvoor": 1635,
  "\u2581hinsichtlich": 1636,
  "\u2581vele": 1637,
  "\u2581Thema": 1638,
  "\u2581oprichting": 1639,
  "\u2581Meine": 1640,
  "ies": 1641,
  "\u2581jeden": 1642,
  "\u2581stemmen": 1643,
  "aat": 1644,
  "\u2581Bewertung": 1645,
  "\u2581September": 1646,
  "oder": 1647,
  "\u2581Interesse": 1648,
  "\u2581werkzaamheden": 1649,
  "weg": 1650,
  "no": 1651,
  "\u2581gebaseerd": 1652,
  "io": 1653,
  "\u2581meeste": 1654,
  "\u2581Nacht": 1655,
  "\u2581oorsprong": 1656,
  "\u2581Lass": 1657,
  "\u2581september": 1658,
  "\u2581eerst": 1659,
  "\u2581indem": 1660,
  "keit": 1661,
  "\u2581open": 1662,
  "\u2581Kontrolle": 1663,
  "\u2581Andere": 1664,
  "\u2581Her": 1665,
  "lieb": 1666,
  "\u2581lijkt": 1667,
  "\u2581Su": 1668,
  "\u25811992": 1669,
  "\u2581begin": 1670,
  "\u2581April": 1671,
  "\u2581Gezi": 1672,
  "\u2581boven": 1673,
  "\u2581politischen": 1674,
  "\u2581vallen": 1675,
  "\u2581dacht": 1676,
  "\u2581eind": 1677,
  "\u2581gezondheid": 1678,
  "\u2581gen": 1679,
  "\u2581april": 1680,
  "\u2581Informations": 1681,
  "\u2581debat": 1682,
  "\u2581vertegenwoordig": 1683,
  "\u2581bedeutet": 1684,
  "li": 1685,
  "\u2581eigenen": 1686,
  "uk": 1687,
  "50": 1688,
  "\u2581oplossing": 1689,
  "\u2581genoeg": 1690,
  "\u2581hoog": 1691,
  "\u2581Kunden": 1692,
  "\u2581Mitteilung": 1693,
  "\u2581Li": 1694,
  "\u2581Brussel": 1695,
  "\u2581Hotel": 1696,
  "\u2581New": 1697,
  "\u2581Antrag": 1698,
  "\u2581Gr\u00fcnde": 1699,
  "\u2581Republiek": 1700,
  "ica": 1701,
  "\u2581Haupt": 1702,
  "een": 1703,
  "ingen": 1704,
  "\u2581Beihilfen": 1705,
  "lijk": 1706,
  "\u2581halten": 1707,
  "\u2581moeder": 1708,
  "fer": 1709,
  "\u2581Jetzt": 1710,
  "ibel": 1711,
  "\u2581punten": 1712,
  "\u2581belasting": 1713,
  "\u2581extra": 1714,
  "\u2581rond": 1715,
  "\u2581bestimmt": 1716,
  "Dienstleistungen": 1717,
  "\u2581HET": 1718,
  "\u2581Paul": 1719,
  "\u2581ontwerp": 1720,
  "\u2581Volgens": 1721,
  "\u2581Jung": 1722,
  "\u2581Gesamt": 1723,
  "ef": 1724,
  "\u2581waarmee": 1725,
  "zimmer": 1726,
  "kamer": 1727,
  "\u2581Y": 1728,
  "\u2581Verbindung": 1729,
  "\u2581entsprechend": 1730,
  "\u2581Artikels": 1731,
  "\u258190": 1732,
  "eerd": 1733,
  "lang": 1734,
  "\u2581Fischerei": 1735,
  "\u2581Verf\u00fcgung": 1736,
  "\u2581Duitsland": 1737,
  "platz": 1738,
  "nis": 1739,
  "\u2581vindt": 1740,
  "\u2581Tel": 1741,
  "\u2581houdende": 1742,
  "\u00c3": 1743,
  "\u25812014": 1744,
  "\u2581sieht": 1745,
  "\u2581gute": 1746,
  "ber": 1747,
  "\u2581mogelijkheid": 1748,
  "\u2581woorden": 1749,
  "\u2581Nun": 1750,
  "\")": 1751,
  "ca": 1752,
  "\u2581Durch": 1753,
  "\u2581Zeitraum": 1754,
  "\u2581beoordeling": 1755,
  "pen": 1756,
  "\u2581unser": 1757,
  "\u2581standpunt": 1758,
  "\u2581Dr": 1759,
  "\u2581tut": 1760,
  "\u2581o": 1761,
  "ug": 1762,
  "\u2581Bis": 1763,
  "\u2581iedereen": 1764,
  "atie": 1765,
  "\u2581Tage": 1766,
  "\u2581enthalten": 1767,
  "met": 1768,
  "\u2581Deutschland": 1769,
  "\u2581uitgaven": 1770,
  "\u2581Br\u00fcssel": 1771,
  "che": 1772,
  "ino": 1773,
  "\u2581mannen": 1774,
  "\u2581vervangen": 1775,
  "6": 1776,
  "vor": 1777,
  "\u2581durchgef\u00fchrt": 1778,
  "\u2581Person": 1779,
  "\u2581Gele": 1780,
  "\u2581folgt": 1781,
  "\u2581omstandigheden": 1782,
  "\u2581Over": 1783,
  "we": 1784,
  "\u2581Produktion": 1785,
  "\u2581vind": 1786,
  "In": 1787,
  "\u2581Wort": 1788,
  "\u2581Zahl": 1789,
  "\u2581website": 1790,
  "\u2581toezicht": 1791,
  "\u2581Immobilien": 1792,
  "\u2581F\u00e4llen": 1793,
  "\u2581genoemd": 1794,
  "\u2581Genehmigung": 1795,
  "\u2581sagt": 1796,
  "\u2581Car": 1797,
  "\u2581\u00c4nderungen": 1798,
  "\u2581neemt": 1799,
  "\u2581bekend": 1800,
  "\u2581gegeben": 1801,
  "\u2581geheel": 1802,
  "\u2581Vielleicht": 1803,
  "\u2581genoemde": 1804,
  "\u25811995": 1805,
  "\u2581weiterhin": 1806,
  "90": 1807,
  "\u2581Mein": 1808,
  "industrie": 1809,
  "\u2581minste": 1810,
  "\u2581Ko": 1811,
  "aal": 1812,
  "\u2581aard": 1813,
  "\u2581opnieuw": 1814,
  "\u2581gab": 1815,
  "\u2581Von": 1816,
  "mal": 1817,
  "\u2581ganze": 1818,
  "sen": 1819,
  "\u2581Se": 1820,
  "post": 1821,
  "\u2581waardoor": 1822,
  "\u2581ECU": 1823,
  "hi": 1824,
  "\u2581ml": 1825,
  "\u2581darin": 1826,
  "\u2581Luxemburg": 1827,
  "\u2581\u00dcberwachung": 1828,
  "\u2581Keine": 1829,
  "mm": 1830,
  "\u2581Annahme": 1831,
  "\u2581plan": 1832,
  "\u2581week": 1833,
  "sma\u00dfnahmen": 1834,
  "\u2581Portugal": 1835,
  "\u2581bloed": 1836,
  "\u2581sogar": 1837,
  "\u2581namens": 1838,
  "\u2581zitten": 1839,
  "\u2581kwestie": 1840,
  "\u2581Beh\u00f6rde": 1841,
  "\u2581blijkt": 1842,
  "\u2581weit": 1843,
  "\u2581Entschlie\u00dfung": 1844,
  "\u2581Rechte": 1845,
  "\u2581ziet": 1846,
  "\u2581Ausgaben": 1847,
  "\u2581dieren": 1848,
  "\u25812015": 1849,
  "\u2581post": 1850,
  "30": 1851,
  "\u2581eisen": 1852,
  "\u2581contact": 1853,
  "markt": 1854,
  "\u2581Toen": 1855,
  "\u2581verloren": 1856,
  "\u2581meinem": 1857,
  "\u2581procedures": 1858,
  "\u2581tragen": 1859,
  "\u2581(3)": 1860,
  "\u2581Einf\u00fchrung": 1861,
  "over": 1862,
  "\u2581L\u00f6sung": 1863,
  "\u2581bereikt": 1864,
  "\u2581Me": 1865,
  "sverfahren": 1866,
  "\u25811996": 1867,
  "\u2581f\u00fcnf": 1868,
  "\u2581Bovendien": 1869,
  "ard": 1870,
  "\u2581liebe": 1871,
  "\u2581opleiding": 1872,
  "\u2581Rechts": 1873,
  "\u2581jede": 1874,
  "\u2581kam": 1875,
  "\u25811993": 1876,
  "8": 1877,
  "\u2581Tot": 1878,
  "\u25811994": 1879,
  "\u2581and": 1880,
  "\u2581Arbeitnehmer": 1881,
  "ran": 1882,
  "spolitik": 1883,
  "\u2581Reihe": 1884,
  "\u2581unterschiedlich": 1885,
  "\u2581zetten": 1886,
  "\u2581volledige": 1887,
  "\u2581Gesundheit": 1888,
  "\u25811997": 1889,
  "\u2581Besluit": 1890,
  "\u2581persoon": 1891,
  "\u2581hei\u00dft": 1892,
  "\u2581vastgestelde": 1893,
  "\u2581mate": 1894,
  "\u2581Wert": 1895,
  "\u2581No": 1896,
  "\u2581rechtstreeks": 1897,
  "\u2581Dinge": 1898,
  "\u2581wobei": 1899,
  "\u2581bijzondere": 1900,
  "\u258192": 1901,
  "ull": 1902,
  "\u2581voldoende": 1903,
  "\u2581Nur": 1904,
  "20": 1905,
  "\u2581effect": 1906,
  "\u2581Ma": 1907,
  "\u2581Ex": 1908,
  "\u2581verbetering": 1909,
  "\u2581moest": 1910,
  "\u2581Situation": 1911,
  "\u2581Au\u00dferdem": 1912,
  "\u2581vermeld": 1913,
  "\u2581\u00f6ffentliche": 1914,
  "\u2581IV": 1915,
  "\u2581UND": 1916,
  "Ver\u00f6ffentlichung": 1917,
  "\u2581verantwoorde": 1918,
  "\u2581bijdrage": 1919,
  "\u2581ha": 1920,
  "\u2581Liste": 1921,
  "\u2581Lu": 1922,
  "19": 1923,
  "\u2581bedrijf": 1924,
  "uch": 1925,
  "\u2581antwoord": 1926,
  "Ver": 1927,
  "do": 1928,
  "tri": 1929,
  "z\u00e4hl": 1930,
  "\u2581Untersuchung": 1931,
  "\u2581erreicht": 1932,
  "\u2581mens": 1933,
  "nen": 1934,
  "\u2581Gemeinschaften": 1935,
  "\u2581ma": 1936,
  "\u2581alinea": 1937,
  "het": 1938,
  "\u2581Zoals": 1939,
  "\u2581To": 1940,
  "\u2581europ\u00e4ische": 1941,
  "\u2581derhalve": 1942,
  "dank": 1943,
  "\u2581Wirtschaft": 1944,
  "\u2581liegen": 1945,
  "\u25816.": 1946,
  "FR": 1947,
  "\u2581bereit": 1948,
  "ierung": 1949,
  "\u2581druk": 1950,
  "tische": 1951,
  "\u2581aanmerking": 1952,
  "\u2581Finanz": 1953,
  "\u2581grens": 1954,
  "\u2581Spanje": 1955,
  "\u2581ebenfalls": 1956,
  "\u2581einigen": 1957,
  "ien": 1958,
  "\u2581spelen": 1959,
  "nuitvoerlegging": 1960,
  "\u2581vol": 1961,
  "\u2581erforderlichen": 1962,
  "\u2581Internet": 1963,
  "\u2581200": 1964,
  "\u2581unterst\u00fctzen": 1965,
  "\u2581Jahres": 1966,
  "\u2581Zie": 1967,
  "\u2581Februar": 1968,
  "\u2581openbare": 1969,
  "\u2581Po": 1970,
  "\u2581februari": 1971,
  "sel": 1972,
  "\u2581Blut": 1973,
  "ka": 1974,
  "\u2581bevor": 1975,
  "\u2581erreichen": 1976,
  "\u2581heraus": 1977,
  "\u2581aangenomen": 1978,
  "\u2581Auffassung": 1979,
  "\u2581kracht": 1980,
  "\u2581gevonden": 1981,
  "po": 1982,
  "systeem": 1983,
  "\u2581vielen": 1984,
  "\u2581Ansicht": 1985,
  "\u2581Daher": 1986,
  "unter": 1987,
  "\u2581Landwirtschaft": 1988,
  "lon": 1989,
  "tisch": 1990,
  "\u2581bestand": 1991,
  "\u2581Men": 1992,
  "\u2581vorliegenden": 1993,
  "\u2581lokale": 1994,
  "\u2581verbeteren": 1995,
  "\u2581Datei": 1996,
  "\u2581direkt": 1997,
  "\u2581toegepast": 1998,
  "\u2581Vorschl\u00e4ge": 1999,
  "\u258180": 2000,
  "\u2581Familie": 2001,
  "\u2581wirtschaftliche": 2002,
  "\u2581anderer": 2003,
  "\u2581dachte": 2004,
  "\u2581Mag": 2005,
  "\u2581jedes": 2006,
  "\u2581sinds": 2007,
  "\u2581to": 2008,
  "\u2581Neu": 2009,
  "\u2581geldt": 2010,
  "lie": 2011,
  "\u2581Wochen": 2012,
  "ose": 2013,
  "ABl": 2014,
  "\u2581onroerend": 2015,
  "\u2581n\u00e4mlich": 2016,
  "sie": 2017,
  "\u2581Gruppe": 2018,
  "\u2581leid": 2019,
  "ah": 2020,
  "\u2581Studien": 2021,
  "\u2581Nutzung": 2022,
  "\u2581Steuer": 2023,
  "\u2581Meinung": 2024,
  "aar": 2025,
  "\u2581Uhr": 2026,
  "och": 2027,
  "\u2581praten": 2028,
  "\u2581schnell": 2029,
  "\u2581woord": 2030,
  "\u2581besluiten": 2031,
  "fe": 2032,
  "\u2581=": 2033,
  "\u2581acties": 2034,
  "\u2581rein": 2035,
  "\u2581hoch": 2036,
  "\u2581Zijn": 2037,
  "\u2581Sir": 2038,
  "\u2581bevorderen": 2039,
  "\u2581sprechen": 2040,
  "\u2581aangezien": 2041,
  "beleid": 2042,
  "stellen": 2043,
  "\u2581Zimmer": 2044,
  "\u2581Has": 2045,
  "\u2581vorgesehenen": 2046,
  "lijke": 2047,
  "\u2581brauchen": 2048,
  "ert": 2049,
  "\u2581Produkt": 2050,
  "\u2581notwendig": 2051,
  "\u2581redenen": 2052,
  "\u2581allgemeinen": 2053,
  "\u2581H\u00f6r": 2054,
  "\u2581instelling": 2055,
  "va": 2056,
  "\u2581bijna": 2057,
  "\u2581Vertrags": 2058,
  "diensten": 2059,
  "\u2581Bereichen": 2060,
  "ft": 2061,
  "\u2581Gemeenschappen": 2062,
  "\u2581Mitglieder": 2063,
  "\u2581Festlegung": 2064,
  "kommen": 2065,
  "\u2581nat\u00fcrlich": 2066,
  "\u2581Frankrijk": 2067,
  "ak": 2068,
  "\u2581rapporteur": 2069,
  "\u2581getan": 2070,
  "\u2581idee": 2071,
  "\u2581nacht": 2072,
  "\u2581Fonds": 2073,
  "\u2581collega": 2074,
  "\u2581project": 2075,
  "\u2581klein": 2076,
  "\u2581inbegrip": 2077,
  "lijkheid": 2078,
  "\u2581enkel": 2079,
  "\u2581Kan": 2080,
  "ac": 2081,
  "\u2581Gesellschaft": 2082,
  "\u2581schaffen": 2083,
  "\u2581gefunden": 2084,
  "ance": 2085,
  "\u2581relevante": 2086,
  "\u2581gew\u00e4hrleisten": 2087,
  "\u2581consumenten": 2088,
  "\u2581verkoop": 2089,
  "\u2581dank": 2090,
  "\u2581neu": 2091,
  "\u2581warum": 2092,
  "\u2581onderdelen": 2093,
  "nik": 2094,
  "\u2581Win": 2095,
  "\u2581leggen": 2096,
  "\u2581Doch": 2097,
  "\u2581Fi": 2098,
  "\u2581Miet": 2099,
  "X": 2100,
  "\u2581sofern": 2101,
  "\u2581Verkehr": 2102,
  "ce": 2103,
  "\u2581bereiken": 2104,
  "\u00f6": 2105,
  "\u2581liggen": 2106,
  "\u2581Antwort": 2107,
  "zeit": 2108,
  "\u2581rest": 2109,
  "\u2581uitbreiding": 2110,
  "\u2581n": 2111,
  "\u2581grootste": 2112,
  "34": 2113,
  "schen": 2114,
  "kel": 2115,
  "\u2581Rechnung": 2116,
  "ium": 2117,
  "\u2581Lebensmittel": 2118,
  "siehe": 2119,
  "\u2581di": 2120,
  "\u2581organisaties": 2121,
  "\u2581echte": 2122,
  "\u2581criteria": 2123,
  "\u2581betrifft": 2124,
  "baar": 2125,
  "\u2581natuurlijk": 2126,
  "\u2581gek": 2127,
  "\u2581allein": 2128,
  "Ge": 2129,
  "IT": 2130,
  "\u2581unterst\u00fctzt": 2131,
  "\u2581Augen": 2132,
  "\u2581Di": 2133,
  "\u2581Bull": 2134,
  "ell": 2135,
  "\u2581industrie": 2136,
  "ement": 2137,
  "\u2581Stunden": 2138,
  "\u2581wet": 2139,
  "\u2581Verpflichtungen": 2140,
  "la": 2141,
  "\u2581gleichen": 2142,
  "\u2581invloed": 2143,
  "\u2581Mitglied": 2144,
  "\u2581Kriterien": 2145,
  "voor": 2146,
  "\u2581zee": 2147,
  "\u2581El": 2148,
  "hen": 2149,
  "\u2581advertentie": 2150,
  "\u2581Park": 2151,
  "\u2581investeringen": 2152,
  "\u2581Bildung": 2153,
  "\u2581Monate": 2154,
  "ll": 2155,
  "9": 2156,
  "\u258110.": 2157,
  "\u2581passen": 2158,
  "\u2581behandeld": 2159,
  "\u25817.": 2160,
  "\u2581visserij": 2161,
  "\u2581vergadering": 2162,
  "\u2581inter": 2163,
  "\u2581denke": 2164,
  "\u2581T\u00e4tigkeit": 2165,
  "\u2581passiert": 2166,
  "\u2581besten": 2167,
  "\u2581Haushalts": 2168,
  "zo": 2169,
  "\u2581Schaffung": 2170,
  "\u2581klaar": 2171,
  "\u25811990": 2172,
  "\u2581Overeenkomst": 2173,
  "\u2581deutlich": 2174,
  "\u2581hetzelfde": 2175,
  "anzeige": 2176,
  "\u2581produkten": 2177,
  "ci": 2178,
  "illa": 2179,
  "vel": 2180,
  "\u2581beperkt": 2181,
  "\u2581Produkte": 2182,
  "\u2581Kapitel": 2183,
  "4/": 2184,
  "app": 2185,
  "\u2581Selbst": 2186,
  "\u2581Punkt": 2187,
  "\u2581Monaten": 2188,
  "\u2581gesamten": 2189,
  "\u2581Anzahl": 2190,
  "tis": 2191,
  "\u2581dosis": 2192,
  "\u25812016": 2193,
  "bestand": 2194,
  "\u2581Gemeinsamen": 2195,
  "\u2581EUROP\u00c4ISCHE": 2196,
  "\u2581angenommen": 2197,
  "sp": 2198,
  "\u2581bekannt": 2199,
  "\u2581Fassung": 2200,
  "\u2581deshalb": 2201,
  "\u2581ko": 2202,
  "\u2581technischen": 2203,
  "\u2581Pre": 2204,
  "\u2581nodige": 2205,
  "\u2581Service": 2206,
  "\u2581bijdragen": 2207,
  "\u2581beroep": 2208,
  "\u2581juiste": 2209,
  "\u2581Liebe": 2210,
  "\u2581pre": 2211,
  "\u2581weder": 2212,
  "\u25818.": 2213,
  "\u2581zeg": 2214,
  "\u2581erf\u00fcllt": 2215,
  "7": 2216,
  "\u2581Sohn": 2217,
  "dienst": 2218,
  "\u2581Sache": 2219,
  "\u2581Ihrer": 2220,
  "test": 2221,
  "\u2581Vi": 2222,
  "\u2581Hause": 2223,
  "\u2581pas": 2224,
  "\u2581arbeids": 2225,
  "Berichterstatter": 2226,
  "\u25819.": 2227,
  "\u2581f\u00fchrt": 2228,
  "\u2581anti": 2229,
  "\u2581Hersteller": 2230,
  "\u2581Bau": 2231,
  "\u2581Region": 2232,
  "\u2581Beitrag": 2233,
  "\u2581krijgt": 2234,
  "\u2581Per": 2235,
  "\u2581Con": 2236,
  "\u2581nou": 2237,
  "\u2581beschouwd": 2238,
  "mit": 2239,
  "11": 2240,
  "\u2581Mevrouw": 2241,
  "\u2581tien": 2242,
  "\u2581Lissabon": 2243,
  "ite": 2244,
  "kosten": 2245,
  "pa": 2246,
  "\u2581ne": 2247,
  "\u2581kg": 2248,
  "\u2581Spanien": 2249,
  "\u2581Beziehungen": 2250,
  "the": 2251,
  "\u2581Einrichtungen": 2252,
  "\u2581ernstige": 2253,
  "\u2581insgesamt": 2254,
  "onderhandelingen": 2255,
  "\u2581Foto": 2256,
  "25": 2257,
  "gang": 2258,
  "14": 2259,
  "gesellschaft": 2260,
  "\u2581behandelt": 2261,
  "\u2581Com": 2262,
  "\u2581ber\u00fccksichtigt": 2263,
  "\u2581kijken": 2264,
  "\u2581actie": 2265,
  "\u2581entsprechen": 2266,
  "pro": 2267,
  "\u2581Lebens": 2268,
  "overeenkomst": 2269,
  "\u258132": 2270,
  "\u2581hoger": 2271,
  "\u2581verplichtingen": 2272,
  "\u2581kind": 2273,
  "\u2581unmittelbar": 2274,
  "\u2581aanpassing": 2275,
  "\u2581kans": 2276,
  "\u258115.": 2277,
  "\u2581gemeinschaft": 2278,
  "\u2581frei": 2279,
  "ator": 2280,
  "\u2581Staat": 2281,
  "\u2581Arzneimittel": 2282,
  "\u2581Zum": 2283,
  "\u2581proces": 2284,
  "\u2581kant": 2285,
  "ley": 2286,
  "\u2581amendementen": 2287,
  "\u2581Bild": 2288,
  "\u2581mededeling": 2289,
  "\u258131.": 2290,
  "\u2581Ha": 2291,
  "\u2581eerder": 2292,
  "ort": 2293,
  "\u2581Stelle": 2294,
  "sf\u00e4higkeit": 2295,
  "iger": 2296,
  "\u2581bestuur": 2297,
  "tal": 2298,
  "\u2581hoogte": 2299,
  "\u2581Rest": 2300,
  "\u2581Frankreich": 2301,
  "\u2581gar": 2302,
  "tin": 2303,
  "\u2581Ru": 2304,
  "\u2581spijt": 2305,
  "\u2581geacht": 2306,
  "\u2581verleend": 2307,
  "\u2581Erkl\u00e4rung": 2308,
  "\u2581waaronder": 2309,
  "\u2010": 2310,
  "\u2581Den": 2311,
  "\u2581voorbeeld": 2312,
  "\u2581effecten": 2313,
  "\u2581minuten": 2314,
  "log": 2315,
  "\u2581Hel": 2316,
  "\u2581helemaal": 2317,
  "\u2581stof": 2318,
  "ga": 2319,
  "\u2581langer": 2320,
  "\u2581Risiko": 2321,
  "\u2581organisatie": 2322,
  "\u2581gekomen": 2323,
  "\u2581zes": 2324,
  "\u2581zeigen": 2325,
  "\u2581wahr": 2326,
  "\u2581ieder": 2327,
  "\u2581moeilijk": 2328,
  "ud": 2329,
  "Die": 2330,
  "\u2581gehele": 2331,
  "\u2581spel": 2332,
  "\u2581VOOR": 2333,
  "\u2581vorgelegt": 2334,
  "\u2581schade": 2335,
  "age": 2336,
  "\u2581tevens": 2337,
  "\u2581Deshalb": 2338,
  "\u2581spreken": 2339,
  "\u2581aarde": 2340,
  "\u2581vrije": 2341,
  "\u2581Ordnung": 2342,
  "\u2581weken": 2343,
  "sbeleid": 2344,
  "\u2581overeenkomsten": 2345,
  "\u2581x": 2346,
  "\u2581leuk": 2347,
  "\u2581gratis": 2348,
  "\u2581producenten": 2349,
  "\u2581Herstellung": 2350,
  "ren": 2351,
  "\u2581wijzigingen": 2352,
  "plan": 2353,
  "\u2581mogelijke": 2354,
  "\u2581neuer": 2355,
  "\u2581eveneens": 2356,
  "ive": 2357,
  "berg": 2358,
  "\u2581onderzoeken": 2359,
  "16": 2360,
  "ip": 2361,
  "schutz": 2362,
  "\u2581werkt": 2363,
  "mon": 2364,
  "\u2581verklaring": 2365,
  "\u2581voll": 2366,
  "\u2581geweld": 2367,
  "\u2581strijd": 2368,
  "\u2581lucht": 2369,
  "dag": 2370,
  "\u2581Kijk": 2371,
  "\u2581resolutie": 2372,
  "\u2581commissaris": 2373,
  "nt": 2374,
  "\u2581soorten": 2375,
  "\u2581markten": 2376,
  "\u2581duurzame": 2377,
  "\u2581Kollegen": 2378,
  "\u2581verkeer": 2379,
  "\u2581EUROPESE": 2380,
  "\u00e4r": 2381,
  "arm": 2382,
  "\u2581Ausbildung": 2383,
  "ot": 2384,
  "\u2581oude": 2385,
  "\u2581foto": 2386,
  "\u2581Ste": 2387,
  "\u2581dragen": 2388,
  "\u2581Programme": 2389,
  "\u2581Tri": 2390,
  "pe": 2391,
  "\u2581leren": 2392,
  "politik": 2393,
  "\u2581gestellt": 2394,
  "\u2581Denk": 2395,
  "ob": 2396,
  "\u2581erster": 2397,
  "\u258135": 2398,
  "\u2581gesloten": 2399,
  "\u2581Erw\u00e4gung": 2400,
  "\u2581weinig": 2401,
  "tie": 2402,
  "\u2581Ka": 2403,
  "\u2581Wind": 2404,
  "\u2581bieten": 2405,
  "tro": 2406,
  "\u2581n\u00e4chsten": 2407,
  "\u2581Interessen": 2408,
  "\u2581vorgesehen": 2409,
  "\u2581Of": 2410,
  "\u2581bedragen": 2411,
  "\u2581economisch": 2412,
  "eerde": 2413,
  "\u2581leben": 2414,
  "ang": 2415,
  "\u2581Kann": 2416,
  "pel": 2417,
  "\u2581Menge": 2418,
  "\u2581speciale": 2419,
  "\u2581entsprechenden": 2420,
  "\u2581krachtens": 2421,
  "\u2581se": 2422,
  "\u2581Strategie": 2423,
  "kon": 2424,
  "\u2581ooit": 2425,
  "nes": 2426,
  "pf": 2427,
  "\u2581ruimte": 2428,
  "ina": 2429,
  "\u25815,": 2430,
  "\u2581Erde": 2431,
  "gl": 2432,
  "\u2581Cas": 2433,
  "\u2581Wel": 2434,
  "\u258170": 2435,
  "\u2581Investitionen": 2436,
  "verantwoordelijk": 2437,
  "\u2581geltenden": 2438,
  "+": 2439,
  "\u258112.": 2440,
  "\u2581Gr\u00fcndung": 2441,
  "\u2581Organisation": 2442,
  "\u2581aanvullende": 2443,
  "\u2581vertrouwen": 2444,
  "\u2581Abend": 2445,
  "\u2581Dienst": 2446,
  "\u2581deed": 2447,
  "\u2581gemiddelde": 2448,
  "\u2581betere": 2449,
  "\u2581geest": 2450,
  "ph": 2451,
  "ord": 2452,
  "\u2581Ju": 2453,
  "\u2581Geschichte": 2454,
  "\u2581Pa": 2455,
  "\u2581nein": 2456,
  "\u2581solchen": 2457,
  "isten": 2458,
  "\u2581Aufgaben": 2459,
  "\u2581uitsluitend": 2460,
  "\u2581waarschijnlijk": 2461,
  "\u2581betroffenen": 2462,
  "stel": 2463,
  "\u2581Wahl": 2464,
  "\u2581dar": 2465,
  "bescherming": 2466,
  "\u2581oben": 2467,
  "\u2581for": 2468,
  "\u2581f\u00f6rdern": 2469,
  "\u2581Name": 2470,
  "\u2581gew\u00e4hrt": 2471,
  "ris": 2472,
  "12": 2473,
  "\u2581(4)": 2474,
  "\u2581elektronische": 2475,
  "\u2581Zur": 2476,
  "mail": 2477,
  "\u2581zorg": 2478,
  "\u2581arbeiten": 2479,
  "\u2581sterk": 2480,
  "\u2581Mi": 2481,
  "ED": 2482,
  "\u2581instrumenten": 2483,
  "\u2581Haar": 2484,
  "srecht": 2485,
  "\u2581Fraktion": 2486,
  "\u2581Nederland": 2487,
  "\u2581gij": 2488,
  "zelf": 2489,
  "\u2581h\u00e4tten": 2490,
  "\u2581Seiten": 2491,
  "\u2581thuis": 2492,
  "\u2581gelden": 2493,
  "\u2581entfernt": 2494,
  "40": 2495,
  "\u2581vooruitgang": 2496,
  "\u2581uitzondering": 2497,
  "\u2581\u00e4ndern": 2498,
  "\u2581familie": 2499,
  "\u2581Bestimmung": 2500,
  "\u2581Entscheidungen": 2501,
  "\u2581Arbeits": 2502,
  "\u2581ogen": 2503,
  "unternehmen": 2504,
  "\u2581st": 2505,
  "\u2581Buch": 2506,
  "\u2581[1],": 2507,
  "\u2581zult": 2508,
  "\u2581Datum": 2509,
  "\u2581Sociaal": 2510,
  "\u2581Itali\u00eb": 2511,
  "\u2581online": 2512,
  "\u2581Unternehmens": 2513,
  "\u258111.": 2514,
  "\u2581autoriteit": 2515,
  "\u2581betrekkingen": 2516,
  "\u2581Einfuhr": 2517,
  "EL": 2518,
  "gi": 2519,
  "\u2581school": 2520,
  "\u2581verlenen": 2521,
  "\u2581later": 2522,
  "\u2581politische": 2523,
  "\u2581gegebenenfalls": 2524,
  "\u2581sp\u00e4ter": 2525,
  "\u2581bevolking": 2526,
  "licher": 2527,
  "val": 2528,
  "\u2581geneesmiddelen": 2529,
  "\u2581Druck": 2530,
  "eert": 2531,
  "que": 2532,
  "\u2581hinter": 2533,
  "\u2581volle": 2534,
  "\u2581mogelijkheden": 2535,
  "\u2581Wirkung": 2536,
  "\u2581erlassen": 2537,
  "\u2581Pu": 2538,
  "res": 2539,
  "\u2581zoeken": 2540,
  "\u2581Dosis": 2541,
  "\u2581San": 2542,
  "ooi": 2543,
  "iet": 2544,
  "\u2581500": 2545,
  "\u2581volgen": 2546,
  "\u2581sectoren": 2547,
  "istische": 2548,
  "\u2581Japan": 2549,
  "buch": 2550,
  "77": 2551,
  "\u2581Mat": 2552,
  "\u2581oft": 2553,
  "\u2581Information": 2554,
  "\u258185": 2555,
  "\u2581ver\u00f6ffentlicht": 2556,
  "\u2581Arzt": 2557,
  "\u2581Minuten": 2558,
  "\u2581soziale": 2559,
  "\u2581Einklang": 2560,
  "\u2581Flughafen": 2561,
  "rand": 2562,
  "\u2581legt": 2563,
  "ny": 2564,
  "\u2581landwirtschaft": 2565,
  "\u2581CO": 2566,
  "\u2581sechs": 2567,
  "\u2581fast": 2568,
  "\u2581Omdat": 2569,
  "\u2581Har": 2570,
  "*": 2571,
  "ill": 2572,
  "15": 2573,
  "\u2581eigenlijk": 2574,
  "\u2581voordelen": 2575,
  "haus": 2576,
  "ham": 2577,
  "\u2581aangegeven": 2578,
  "\u2581totaal": 2579,
  "\u2581Sam": 2580,
  "\u2581gleichzeitig": 2581,
  "\u2581kamer": 2582,
  "\u2581spielen": 2583,
  "EWS": 2584,
  "\u2581Ziff": 2585,
  "Verdrag": 2586,
  "\u2581korte": 2587,
  "\u25811991": 2588,
  "essen": 2589,
  "\u2581T\u00e4tigkeiten": 2590,
  "\u2581300": 2591,
  "\u2581genommen": 2592,
  "tra": 2593,
  "lass": 2594,
  "\u2581evaluatie": 2595,
  "\u2581Viele": 2596,
  "\u2581Licht": 2597,
  "ys": 2598,
  "\u2581wist": 2599,
  "lin": 2600,
  "\u2581wichtige": 2601,
  "tor": 2602,
  "\u2581mehrere": 2603,
  "\u2581ken": 2604,
  "\u2581tritt": 2605,
  "\u2581administratieve": 2606,
  "\u2581voorzitterschap": 2607,
  "\u2581heen": 2608,
  "don": 2609,
  "\u2581externe": 2610,
  "\u2581Bek\u00e4mpfung": 2611,
  "\u2581bedoel": 2612,
  "\u2581Italien": 2613,
  "pass": 2614,
  "01": 2615,
  "LL": 2616,
  "\u2581evenwel": 2617,
  "von": 2618,
  "\u2581Pi": 2619,
  "06": 2620,
  "\u2581gewesen": 2621,
  "\u2581komende": 2622,
  "\u2581optreden": 2623,
  "\u2581Einfuhren": 2624,
  "\u2581Woche": 2625,
  "\u2581Ca": 2626,
  "\u2581verdere": 2627,
  "\u2581grotere": 2628,
  "\u2581fe": 2629,
  "\u2581gehad": 2630,
  "\u2581Herz": 2631,
  "\u2581M\u00e4nner": 2632,
  "\u2581Ma\u00dfnahme": 2633,
  "\u2581eten": 2634,
  "\u2581Zweck": 2635,
  "\u2581juist": 2636,
  "\u2581ihres": 2637,
  "\u2581integratie": 2638,
  "\u2581Beschikking": 2639,
  "\u2581taal": 2640,
  "\u2581Beteiligung": 2641,
  "ben": 2642,
  "\u2581Familien": 2643,
  "code": 2644,
  "\u2581EWR": 2645,
  "\u2581ca": 2646,
  "\u2581inhoud": 2647,
  "\u2581EER": 2648,
  "\u2581Kind": 2649,
  "\u2581wenig": 2650,
  "\u2581economie": 2651,
  "\u2581verbonden": 2652,
  "\u2581Abkommens": 2653,
  "ana": 2654,
  "\u2581vertellen": 2655,
  "\u2581M\u00f6glichkeiten": 2656,
  "\u2581zoek": 2657,
  "itz": 2658,
  "\u2581genug": 2659,
  "ong": 2660,
  "\u2581ervaring": 2661,
  "\u2581studie": 2662,
  "\u2581Uw": 2663,
  "Ber\u00fccksichtigung": 2664,
  "\u2581Tabelle": 2665,
  "\u2581besloten": 2666,
  "\u2581toekomstige": 2667,
  "\u2581Bal": 2668,
  "\u2581Abstimmung": 2669,
  "\u2581strategie": 2670,
  "bad": 2671,
  "\u2581bad": 2672,
  "\u2581horen": 2673,
  "\u2581wijzen": 2674,
  "\u2581zeigt": 2675,
  "els": 2676,
  "door": 2677,
  "\u2581kaart": 2678,
  "\u2581Weil": 2679,
  "\u2581Amtsblatt": 2680,
  "tan": 2681,
  "\u2581kleinen": 2682,
  "\u2581Vergleich": 2683,
  "-2": 2684,
  "\u2581hoofdstuk": 2685,
  "\u2581normen": 2686,
  "\u2581au\u00dfer": 2687,
  "\u2581type": 2688,
  "\u2581Mehr": 2689,
  "\u258188": 2690,
  "\u2581Los": 2691,
  "\u2581Economische": 2692,
  "\u2581weiteren": 2693,
  "nummer": 2694,
  "\u2581keuze": 2695,
  "enden": 2696,
  "\u2581richtsnoeren": 2697,
  "\u2581co": 2698,
  "wie": 2699,
  "\u2581Ke": 2700,
  "\u258145": 2701,
  "leg": 2702,
  "\u2581ontwikkelen": 2703,
  "\u2581Kenntnis": 2704,
  "\u2581Wei\u00df": 2705,
  "rant": 2706,
  "\u2581glauben": 2707,
  "\u2581Minister": 2708,
  "\u258114.": 2709,
  "des": 2710,
  "\u00e8": 2711,
  "lot": 2712,
  "\u2581Plan": 2713,
  "\u2581Position": 2714,
  "vers": 2715,
  "ace": 2716,
  "all": 2717,
  "\u2581Sozial": 2718,
  "\u2581erh\u00e4lt": 2719,
  "h\u00f6r": 2720,
  "\u2581Inhalt": 2721,
  "\u2581valt": 2722,
  "80": 2723,
  "\u2581hoeveelheid": 2724,
  "mar": 2725,
  "\u2581co\u00f6rdinatie": 2726,
  "\u2581Haben": 2727,
  "\u2581bekommen": 2728,
  "\u2581initiatief": 2729,
  "\u2581bestehen": 2730,
  "\u2581liefde": 2731,
  "\u2581Fehler": 2732,
  "\u2581Nou": 2733,
  "Artikel": 2734,
  "pt": 2735,
  "\u2581(1": 2736,
  "\u00f6t": 2737,
  "99": 2738,
  "service": 2739,
  "\u2581sub": 2740,
  "\u2581Organisationen": 2741,
  "\u2581besondere": 2742,
  "rie": 2743,
  "\u2581dadurch": 2744,
  "landen": 2745,
  "65": 2746,
  "\u2581normale": 2747,
  "\u2581vermoord": 2748,
  "\u2581Mon": 2749,
  "\u2581Fortschritte": 2750,
  "\u2581verstrekt": 2751,
  "\u2581Polen": 2752,
  "\u2581bestimmter": 2753,
  "\u2581Bev\u00f6lkerung": 2754,
  "kom": 2755,
  "\u2581entspricht": 2756,
  "avond": 2757,
  "\u2581K\u00f6nig": 2758,
  "\u2581Aufgabe": 2759,
  "\u2581Stellen": 2760,
  "ti": 2761,
  "ich": 2762,
  "2/": 2763,
  "\u2581vormt": 2764,
  "\u2581Bo": 2765,
  "\u2581verschillen": 2766,
  "18": 2767,
  "\u2581Onze": 2768,
  "\u2581M\u00e4dchen": 2769,
  "\u2581bleibt": 2770,
  "\u2581Koordinierung": 2771,
  "gas": 2772,
  "damm": 2773,
  "\u2581ondersteuning": 2774,
  "can": 2775,
  "\u2581Handels": 2776,
  "\u2581vroeg": 2777,
  "\u258136": 2778,
  "\u258116.": 2779,
  "ras": 2780,
  "sbedingungen": 2781,
  "pi": 2782,
  "\u2581verricht": 2783,
  "tig": 2784,
  "iv": 2785,
  "\u2581beginselen": 2786,
  "\u2581raad": 2787,
  "ette": 2788,
  "\u2581aspecten": 2789,
  "\u2581erm\u00f6glichen": 2790,
  "\u2581Kon": 2791,
  "\u2581BTW": 2792,
  "\u2581instanties": 2793,
  "\u2581statt": 2794,
  "\u2581erkennen": 2795,
  "17": 2796,
  "\u2581darum": 2797,
  "\u2581Kontakt": 2798,
  "\u00f6l": 2799,
  "\u2581begonnen": 2800,
  "\u2581tats\u00e4chlich": 2801,
  "\u2581zoon": 2802,
  "\u2581Ad": 2803,
  "\u2581Lo": 2804,
  "del": 2805,
  "\u2581opmerkingen": 2806,
  "\u2581irgend": 2807,
  "\u2581Ausdruck": 2808,
  "\u2581natuurlijke": 2809,
  "\u2581centrale": 2810,
  "\u2581partij": 2811,
  "\u2581daarmee": 2812,
  "\u2581Tatsache": 2813,
  "\u2581bevordering": 2814,
  "\u2581gelegen": 2815,
  "\u2581krediet": 2816,
  "kg": 2817,
  "ide": 2818,
  "\u2581Verantwortung": 2819,
  "\u2581Reise": 2820,
  "\u258175": 2821,
  "ER": 2822,
  "raten": 2823,
  "\u2581Leitlinien": 2824,
  "\u2581EES": 2825,
  "\u2581huur": 2826,
  "\u2581nimmt": 2827,
  "\u2581unserem": 2828,
  "dig": 2829,
  "\u2581Frist": 2830,
  "\u2581John": 2831,
  "\u2581\u00dcberpr\u00fcfung": 2832,
  "\u2581Ter": 2833,
  "\u2581sprake": 2834,
  "\u2581geh\u00f6ren": 2835,
  "\u2581International": 2836,
  "AL": 2837,
  "\u2581bepalen": 2838,
  "\u2581Mitgliedstaats": 2839,
  "onder": 2840,
  "\u2581ertoe": 2841,
  "\u2581Handelingen": 2842,
  "\u2581vergunning": 2843,
  "\u2581vereist": 2844,
  "\u2581eure": 2845,
  "\u2581sociaal": 2846,
  "\u2581maand": 2847,
  "\u2581bijstand": 2848,
  "\u2581Ursprung": 2849,
  "\u2581David": 2850,
  "Staat": 2851,
  "\u2581mensenrechten": 2852,
  "\u2581rechts": 2853,
  "fen": 2854,
  "31": 2855,
  "\u2581Europas": 2856,
  "con": 2857,
  "\u2581Kommissar": 2858,
  "\u0308": 2859,
  "\u2581Gen": 2860,
  "\u2581gelijke": 2861,
  "\u2581betreffend": 2862,
  "\u258113.": 2863,
  "\u2581waarborgen": 2864,
  "oor": 2865,
  "\u258133": 2866,
  "\u2581nationaal": 2867,
  "\u2581Ta": 2868,
  "ar\u00fcber": 2869,
  "\u2581setzen": 2870,
  "\u2581bestrijding": 2871,
  "\u2581Anpassung": 2872,
  "bl": 2873,
  "\u2581Notwendigkeit": 2874,
  "omme": 2875,
  "\u2581gebeurd": 2876,
  "\u2581Regeln": 2877,
  "\u2581Arten": 2878,
  "Vertrag": 2879,
  "\u2581partners": 2880,
  "\u2581Hi": 2881,
  "\u2581versucht": 2882,
  "\u2581mede": 2883,
  "\u2581Gerichtshof": 2884,
  "\u2581leicht": 2885,
  "\u2581beispielsweise": 2886,
  "\u2581proberen": 2887,
  "\u2581Falle": 2888,
  "\u2581Tagen": 2889,
  "Laten": 2890,
  "\u2581Website": 2891,
  "\u2581VI": 2892,
  "\u2581Sta": 2893,
  "\u2581analyse": 2894,
  "za": 2895,
  "\u2581Damit": 2896,
  "igkeit": 2897,
  "\u2581overheid": 2898,
  "appart": 2899,
  "\u2581zweiten": 2900,
  "\u2581passende": 2901,
  "\u2581gebeurt": 2902,
  "\u2581best": 2903,
  "\u2581finanziellen": 2904,
  "system": 2905,
  "05": 2906,
  "\u2581Gr\u00fcnden": 2907,
  "oc": 2908,
  "\u2581con": 2909,
  "ast": 2910,
  "oll": 2911,
  "systemen": 2912,
  "\u2581miljard": 2913,
  "13": 2914,
  "\u2581grondgebied": 2915,
  "rat": 2916,
  "\u2581vlak": 2917,
  "\u2581Teilen": 2918,
  "\u2581zag": 2919,
  "\u2581Franse": 2920,
  "\u2581soms": 2921,
  "elijke": 2922,
  "\u2581regelgeving": 2923,
  "\u2581belangen": 2924,
  "\u2581Za": 2925,
  "\u2581telefoon": 2926,
  "\u2581diverse": 2927,
  "\u25811989": 2928,
  "\u2581afgelopen": 2929,
  "\u2581ber\u00fccksichtigen": 2930,
  "\u2581festgelegten": 2931,
  "ante": 2932,
  "and": 2933,
  "\u2581Jack": 2934,
  "\u2581vanuit": 2935,
  "\u2581Will": 2936,
  "\u2581minimum": 2937,
  "\u2581Text": 2938,
  "\u2581aanpak": 2939,
  "\u2581Aufnahme": 2940,
  "\u2581Luft": 2941,
  "\u2581Go": 2942,
  "\u2581Projekt": 2943,
  "\u2581voorgestelde": 2944,
  "\u2581arts": 2945,
  "\u2581grenz": 2946,
  "\u2581Inter": 2947,
  "\u2581Aussprache": 2948,
  "\u2581overleg": 2949,
  "\u2581Standpunkt": 2950,
  "echt": 2951,
  "\u2581personeel": 2952,
  "2-": 2953,
  "\u2581produktie": 2954,
  "\u2581iedere": 2955,
  "ure": 2956,
  "\u2581Bureau": 2957,
  "\u2581verwenden": 2958,
  "\u2581verbessern": 2959,
  "\u2581Arbeiten": 2960,
  "\u2581menselijke": 2961,
  "\u2581Richtlinien": 2962,
  "\u2581Ausnahme": 2963,
  "cy": 2964,
  "\u2581Gem\u00e4\u00df": 2965,
  "\u2581hel": 2966,
  "\u2581m\u00f6chten": 2967,
  "\u2581model": 2968,
  "\u2581koning": 2969,
  "\u2581Pe": 2970,
  "\u2581h\u00e4lt": 2971,
  "@": 2972,
  "\u2581>": 2973,
  "\u2581halen": 2974,
  "\u2581Aangezien": 2975,
  "\u2581Binnenmarkt": 2976,
  "\u2581Camping": 2977,
  "iz": 2978,
  "\u2581communautair": 2979,
  "\u258148": 2980,
  "\u2581erf\u00fcllen": 2981,
  "\u2581betaling": 2982,
  "\u2581gro\u00df": 2983,
  "\u2581Gas": 2984,
  "\u2581gaf": 2985,
  "ty": 2986,
  "\u2581aufgenommen": 2987,
  "\u2581Alter": 2988,
  "\u2581instantie": 2989,
  "\u2581rund": 2990,
  "\u2581Parteien": 2991,
  "CO": 2992,
  "\u2581taak": 2993,
  "\u2581mooi": 2994,
  "lim": 2995,
  "\u2581jongeren": 2996,
  "\u2581Wahrheit": 2997,
  "line": 2998,
  "\u25816,": 2999,
  "hor": 3000,
  "\u2581doelstelling": 3001,
  "\u2581politie": 3002,
  "\u2581allerdings": 3003,
  "1/": 3004,
  "\u2581Hat": 3005,
  "\u2581desbetreffende": 3006,
  "\u2581Ergebnis": 3007,
  "\u2581Fe": 3008,
  "26": 3009,
  "\u2581verschiedene": 3010,
  "form": 3011,
  "\u2581Hoewel": 3012,
  "\u2581Sitzung": 3013,
  "\u2581po": 3014,
  "\u258130.": 3015,
  "hr": 3016,
  "mie": 3017,
  "\u2581Gericht": 3018,
  "\u2581Gesundheits": 3019,
  "krieg": 3020,
  "\u2581bank": 3021,
  "rlei": 3022,
  "eine": 3023,
  "70": 3024,
  "dy": 3025,
  "\u2581h\u00f6ren": 3026,
  "\u2581voedsel": 3027,
  "\u2581vermogen": 3028,
  "\u2581beginsel": 3029,
  "\u2581Einrichtung": 3030,
  "\u2581zover": 3031,
  "\u2581volk": 3032,
  "\u2581levensmiddelen": 3033,
  "\u2581he": 3034,
  "\u2581wettelijke": 3035,
  "tes": 3036,
  "int": 3037,
  "\u2581degenen": 3038,
  "\u2581Betrieb": 3039,
  "\u2581ziekte": 3040,
  "\u2581Anteil": 3041,
  "\u2581lopen": 3042,
  "\u2581behoeve": 3043,
  "ari": 3044,
  "row": 3045,
  "lig": 3046,
  "ps": 3047,
  "\u2581Wachstum": 3048,
  "ec": 3049,
  "\u2581gevaar": 3050,
  "\u2581zoveel": 3051,
  "\u2581beetje": 3052,
  "\u2581zus\u00e4tzliche": 3053,
  "\u2581bouw": 3054,
  "\u2581toetreding": 3055,
  "\u2581regel": 3056,
  "24": 3057,
  "\u2581daarbij": 3058,
  "\u2581Ed": 3059,
  "\u2581Fa": 3060,
  "\u2581stap": 3061,
  "ri": 3062,
  "\u2581Vertreter": 3063,
  "\u2581treedt": 3064,
  "\u2581bestemd": 3065,
  "\u2581Einsatz": 3066,
  "\u2581Erweiterung": 3067,
  "\u2581genannt": 3068,
  "\u2581hoffe": 3069,
  "\u2581vermelde": 3070,
  "f\u00fcr": 3071,
  "\u2581Sport": 3072,
  "\u2581Schwierigkeiten": 3073,
  "\u2581betreffen": 3074,
  "\u2581kurz": 3075,
  "\u2581Geist": 3076,
  "\u2581kapitaal": 3077,
  "ings": 3078,
  "\u2581besonderen": 3079,
  "\u25811988": 3080,
  "\u2581momenteel": 3081,
  "\u2581jeweiligen": 3082,
  "fi": 3083,
  "uur": 3084,
  "\u2581Wa": 3085,
  "\u2581Ni": 3086,
  "\u2581leveren": 3087,
  "\u2581findet": 3088,
  "\u2581Hol": 3089,
  "sk": 3090,
  "\u2581publiek": 3091,
  "\u2581wichtigsten": 3092,
  "\u2581direct": 3093,
  "\u2581betalen": 3094,
  "\u2581Ku": 3095,
  "zel": 3096,
  "\u2581groter": 3097,
  "\u2581verteld": 3098,
  "\u2581stemming": 3099,
  "anta": 3100,
  "\u2581behoeften": 3101,
  "\u2581Afrika": 3102,
  "\u2581anderes": 3103,
  "\u2581documenten": 3104,
  "\u2581Gruppen": 3105,
  "\u2581brengt": 3106,
  "\u2581schuld": 3107,
  "\u2581do": 3108,
  "\u2581schwer": 3109,
  "\u2581sofort": 3110,
  "hu": 3111,
  "ml": 3112,
  "druck": 3113,
  "\u2581bereid": 3114,
  "\u2581bevatten": 3115,
  "\u2581Kopf": 3116,
  "smaatregelen": 3117,
  "\u2581dialoog": 3118,
  "\u2581slaap": 3119,
  "\u2581Moment": 3120,
  "\u2581teneinde": 3121,
  "ity": 3122,
  "\u2581neer": 3123,
  "\u2581sche": 3124,
  "\u2581Angst": 3125,
  "\u2581richten": 3126,
  "lt": 3127,
  "\u2581Analyse": 3128,
  "\u2581unten": 3129,
  "\u2581%": 3130,
  "\u2581offici\u00eble": 3131,
  "aire": 3132,
  "\u2581USA": 3133,
  "\u2581nachstehender": 3134,
  "vol": 3135,
  "\u2581invoering": 3136,
  "\u2581Verpflichtung": 3137,
  "\u2581noodzaak": 3138,
  "\u2581Miss": 3139,
  "\u2581Unsere": 3140,
  "ks": 3141,
  "\u2581Geef": 3142,
  "ib": 3143,
  "\u2581Drittl\u00e4ndern": 3144,
  "\u2581Amerika": 3145,
  "\u258150%": 3146,
  "\u2581akkoord": 3147,
  "\u2581festgestellt": 3148,
  "\u2581West": 3149,
  "\u2581netwerk": 3150,
  "generaal": 3151,
  "heim": 3152,
  "\u2581Verkehrs": 3153,
  "\u2581au\u00dferdem": 3154,
  "tjes": 3155,
  "\u2581Tiere": 3156,
  "04": 3157,
  "\u2581verkregen": 3158,
  "\u2581Gefahr": 3159,
  "\u2581uiterlijk": 3160,
  "\u2581Welche": 3161,
  "sprocedure": 3162,
  "\u2581Gesch\u00e4fts": 3163,
  "\u2581Tod": 3164,
  "\u2581bedrijfs": 3165,
  "\u2581v\u00f6llig": 3166,
  "\u2581Mindest": 3167,
  "03": 3168,
  "\u00fcber": 3169,
  "\u2581ecu": 3170,
  "sicherheit": 3171,
  "\u2581blij": 3172,
  "\u2581Niemand": 3173,
  "\u2581Titel": 3174,
  "\u2581Macht": 3175,
  "my": 3176,
  "sbereich": 3177,
  "lichkeit": 3178,
  "\u2581Raum": 3179,
  "\u2581mededinging": 3180,
  "\u2581h\u00e4ufig": 3181,
  "\u2581crisis": 3182,
  "\u2581inspanningen": 3183,
  "\u2581combinatie": 3184,
  "\u2581Baby": 3185,
  "\u2581document": 3186,
  "35": 3187,
  "\u2581hou": 3188,
  "\u00c4nderungsantr\u00e4ge": 3189,
  "\u2581COM": 3190,
  "\u2581zehn": 3191,
  "\u2581fallen": 3192,
  "\u2581seines": 3193,
  "\u2581vakantie": 3194,
  "\u2581Pr\u00e4sidentin": 3195,
  "\u2581verstehen": 3196,
  "\u2581positie": 3197,
  "\u2581Betrag": 3198,
  "\u2581Integration": 3199,
  "\u2581fragen": 3200,
  "\u2581onderdeel": 3201,
  "\u2581Leid": 3202,
  "\u2581konnten": 3203,
  "9/": 3204,
  "8/": 3205,
  "zin": 3206,
  "\u2581vrienden": 3207,
  "mann": 3208,
  "tion": 3209,
  "\u2581commissie": 3210,
  "\u2581Eltern": 3211,
  "\u258137": 3212,
  "\u2581Projekte": 3213,
  "\u00f6r": 3214,
  "ice": 3215,
  "\u2581[2]": 3216,
  "\u2581bestanden": 3217,
  "\u2581le": 3218,
  "fa": 3219,
  "plaats": 3220,
  "\u2581Q": 3221,
  "\u2581Nationen": 3222,
  "\u2581Kultur": 3223,
  "ki": 3224,
  "\u2581mijnheer": 3225,
  "Q": 3226,
  "\u2581maatschappelijk": 3227,
  "\u2581beitragen": 3228,
  "rei": 3229,
  "\u2581omvat": 3230,
  "\u2581Cha": 3231,
  "\u2581lichaam": 3232,
  "press": 3233,
  "\u2581sicherzustellen": 3234,
  "\u2581suchen": 3235,
  "\u2581hemel": 3236,
  "bij": 3237,
  "\u2581Onder": 3238,
  "\u2581Grad": 3239,
  "\u2581duur": 3240,
  "\u2581Kar": 3241,
  "\u2581Natur": 3242,
  "tegenwoordigers": 3243,
  "\u2581hotel": 3244,
  "\u2581voorgesteld": 3245,
  "\u2581taken": 3246,
  "\u2581opgesteld": 3247,
  "\u2581stark": 3248,
  "\u2581Sprache": 3249,
  "\u2581gerne": 3250,
  "\u2581Sind": 3251,
  "\u2581denkt": 3252,
  "verordening": 3253,
  "\u2581Anfang": 3254,
  "\u2581Studie": 3255,
  "\u2581beslissing": 3256,
  "\u25811985": 3257,
  "\u2581jonge": 3258,
  "\u2581gebruikers": 3259,
  "tre": 3260,
  "hin": 3261,
  "\u2581\u00fcbrigen": 3262,
  "\u2581politiek": 3263,
  "60": 3264,
  "\u2581neem": 3265,
  "hand": 3266,
  "\u2581einzige": 3267,
  "qui": 3268,
  "ep": 3269,
  "\u2581maximaal": 3270,
  "nung": 3271,
  "6/": 3272,
  "god": 3273,
  "vermogen": 3274,
  "\u2581duizenden": 3275,
  "\u2581beschermen": 3276,
  "\u2581maatregel": 3277,
  "\u2581bez\u00fcglich": 3278,
  "\u2581plaatsen": 3279,
  "\u2581voort": 3280,
  "\u258193": 3281,
  "\u2581ro": 3282,
  "ST": 3283,
  "zer": 3284,
  "ere": 3285,
  "\u2581somit": 3286,
  "\u2581Zeugen": 3287,
  "\u2581Computer": 3288,
  "cken": 3289,
  "\u2581Leistung": 3290,
  "09": 3291,
  "\u2581technologie": 3292,
  "\u2581m\u00f6glicherweise": 3293,
  "\u2581Worte": 3294,
  "\u2581Hab": 3295,
  "\u2581naast": 3296,
  "\u2581Publicatieblad": 3297,
  "\u2581Software": 3298,
  "\u2581bessere": 3299,
  "\u2581Regel": 3300,
  "\u2581derzeit": 3301,
  "\u2581veranderingen": 3302,
  "wa": 3303,
  "\u258120.": 3304,
  "\u2581bestehenden": 3305,
  "\u2581controles": 3306,
  "\u2581veilig": 3307,
  "\u00f6n": 3308,
  "\u2581pr\u00fcfen": 3309,
  "\u2581Belgi\u00eb": 3310,
  "huis": 3311,
  "\u2581pijn": 3312,
  "2,": 3313,
  "\u2581Programms": 3314,
  "ungs": 3315,
  "\u2581gelegenheid": 3316,
  "\u2581au\u00dferhalb": 3317,
  "\u2581Schritt": 3318,
  "\u2581hoofde": 3319,
  "\u2581l\u00e4sst": 3320,
  "\u2581nieuws": 3321,
  "\u25811987": 3322,
  "\u2581Teile": 3323,
  "seite": 3324,
  "\u25812018": 3325,
  "\u2581communicatie": 3326,
  "\u258139": 3327,
  "ader": 3328,
  "\u2581Voraussetzungen": 3329,
  "\u2581oordeel": 3330,
  "28": 3331,
  "lu": 3332,
  "sta": 3333,
  "\u2581hoeveelheden": 3334,
  "\u2581nahm": 3335,
  "39": 3336,
  "\u2581August": 3337,
  "ai": 3338,
  "\u258134": 3339,
  "\u2581vrede": 3340,
  "\u2581braucht": 3341,
  "\u2581vervolgens": 3342,
  "nie": 3343,
  "\u2581Vertragspartei": 3344,
  "organisation": 3345,
  "\u2581Flug": 3346,
  "\u2581thans": 3347,
  "les": 3348,
  "\u2581War": 3349,
  "\u2581resultaat": 3350,
  "\u2581Maak": 3351,
  "\u2581Christus": 3352,
  "\u2581Telefon": 3353,
  "2000": 3354,
  "\u2581initiatieven": 3355,
  "\u2581KMU": 3356,
  "\u2581konden": 3357,
  "\u2581sorgen": 3358,
  "\u2581vrijheid": 3359,
  "\u2581nutzen": 3360,
  "\u258117.": 3361,
  "\u2581wissenschaft": 3362,
  "\u2581Justitie": 3363,
  "\u2581DES": 3364,
  "\u25811986": 3365,
  "\u2581heren": 3366,
  "\u2581bald": 3367,
  "\u2581stuk": 3368,
  "\u2581Economisch": 3369,
  "ock": 3370,
  "\u258122.": 3371,
  "\u2581Aspekte": 3372,
  "\u2581Gro\u00df": 3373,
  "how": 3374,
  "\u2581Kindern": 3375,
  "\u2581afhankelijk": 3376,
  "\u2581onmiddellijk": 3377,
  "si": 3378,
  "\u2581regelingen": 3379,
  "\u2581befindet": 3380,
  "\u2581slot": 3381,
  "itt": 3382,
  "\u2581Folge": 3383,
  "\u2581Basis": 3384,
  "\u2581Anlage": 3385,
  "5/": 3386,
  "\u2581Boden": 3387,
  "\u2581vergessen": 3388,
  "29": 3389,
  "ging": 3390,
  "ux": 3391,
  "\u2581Umfang": 3392,
  "\u2581scheint": 3393,
  "\u2581COMMISSIE": 3394,
  "75": 3395,
  "\u2581centrum": 3396,
  "\u2581Berg": 3397,
  "ron": 3398,
  "hei": 3399,
  "\u2581Anerkennung": 3400,
  "21": 3401,
  "\u2581dringend": 3402,
  "\u2581Landes": 3403,
  "\u2581angewendet": 3404,
  "\u258138": 3405,
  "\u2581actief": 3406,
  "port": 3407,
  "\u2581Zulassung": 3408,
  "\u2581EZB": 3409,
  "\u2581aanvraag": 3410,
  "\u2581Madrid": 3411,
  "\u2581meerderheid": 3412,
  "rad": 3413,
  "dien": 3414,
  "\u2581wachten": 3415,
  "02": 3416,
  "\u2581usw": 3417,
  "rot": 3418,
  "hof": 3419,
  "\u2581beschikbare": 3420,
  "\u258121.": 3421,
  "\u2581Vorteile": 3422,
  "handel": 3423,
  "\u2581kleiner": 3424,
  "\u2581Haut": 3425,
  "COM": 3426,
  "\u2581ingesteld": 3427,
  "\u2581verplicht": 3428,
  "3/": 3429,
  "\u2581bang": 3430,
  "\u2581afval": 3431,
  "\u2581werkelijk": 3432,
  "\u2581eigene": 3433,
  "\u2581verwacht": 3434,
  "\u2581gef\u00fchrt": 3435,
  "\u2581Mensch": 3436,
  "\u2581Natuurlijk": 3437,
  "\u2581[1]": 3438,
  "\u2581Platz": 3439,
  "\u2581Home": 3440,
  "\u2581ad": 3441,
  "\u2581ton": 3442,
  "\u2581vond": 3443,
  "\u2581uiteindelijk": 3444,
  "\u2581Beschlusses": 3445,
  "\u2581vlees": 3446,
  "\u2581innovatie": 3447,
  "\u2581FOLGENDE": 3448,
  "\u2581Volk": 3449,
  "mand": 3450,
  "\u2581waarheid": 3451,
  "Ik": 3452,
  "ate": 3453,
  "gehen": 3454,
  "\u2581Euratom": 3455,
  "45": 3456,
  "\u2581gemeinsam": 3457,
  "\u2581Griekenland": 3458,
  "ff": 3459,
  "goed": 3460,
  "ner": 3461,
  "\u2581K\u00f6rper": 3462,
  "\u2581entwickelt": 3463,
  "\u2581zekerheid": 3464,
  "\u2581gro\u00dfer": 3465,
  "\u2581Vereinbarung": 3466,
  "\u2581cm": 3467,
  "geben": 3468,
  "\u2581juridische": 3469,
  "\u2581precies": 3470,
  "\u2581bepaling": 3471,
  "\u2581verstrekken": 3472,
  "pre": 3473,
  "\u2581infrastructuur": 3474,
  "\u2581KOMMISSION": 3475,
  "\u2581Debatte": 3476,
  "\u2581erfolgt": 3477,
  "\u2581Anti": 3478,
  "\u2581omvang": 3479,
  "\u2581VOLGENDE": 3480,
  "\u258155": 3481,
  "\u2581toegekend": 3482,
  "\u2581York": 3483,
  "\u2581boek": 3484,
  "\u2581talen": 3485,
  "\u2581Einhaltung": 3486,
  "\u2581anderem": 3487,
  "\u2581ziehen": 3488,
  "\u2581Unterabsatz": 3489,
  "\u2581klimaat": 3490,
  "Het": 3491,
  "\u2581individuele": 3492,
  "\u2581behoren": 3493,
  "\u2581Tausende": 3494,
  "vo": 3495,
  "\u2581eventuele": 3496,
  "\u2581150": 3497,
  "\u2581com": 3498,
  "\u2581Ausfuhr": 3499,
  "\u2581Herausforderung": 3500,
  "\u2581Karte": 3501,
  "\u2581zweite": 3502,
  "\u2581Bade": 3503,
  "elle": 3504,
  "\u2581Einige": 3505,
  "\u2581Nat\u00fcrlich": 3506,
  "schap": 3507,
  "\u2581Agentur": 3508,
  "\u2581groepen": 3509,
  "\u2581bevoegdheid": 3510,
  "\u2581particuliere": 3511,
  "sector": 3512,
  "\u2581alt": 3513,
  "\u00a9": 3514,
  "\u258129.": 3515,
  "mes": 3516,
  "\u2581letzte": 3517,
  "ma\u00dfnahmen": 3518,
  "\u2581erm\u00f6glicht": 3519,
  "PC": 3520,
  "\u2581Oder": 3521,
  "\u2581aanleiding": 3522,
  "\u2581rubriek": 3523,
  "7/": 3524,
  "\u2581sluiten": 3525,
  "\u2581Alleen": 3526,
  "\u2581Zwecke": 3527,
  "\u2581Bruder": 3528,
  "\u2581industri\u00eble": 3529,
  "\u2581w\u00e4ren": 3530,
  "eg": 3531,
  "\u2581erkl\u00e4rt": 3532,
  "\u2581Beginn": 3533,
  "cher": 3534,
  "\u2581dicht": 3535,
  "\u2581vaste": 3536,
  "08": 3537,
  "\u2581kilometer": 3538,
  "rij": 3539,
  "\u2581Gebieten": 3540,
  "\u2581Voorts": 3541,
  "\u2581chemische": 3542,
  "\u2581Erfolg": 3543,
  "iel": 3544,
  "\u2581Ierland": 3545,
  "off": 3546,
  "\u2581verpflichtet": 3547,
  "\u2581Naar": 3548,
  "war": 3549,
  "\u2581guten": 3550,
  "\u2581ren": 3551,
  "\u2581veranderen": 3552,
  "\":": 3553,
  "\u2581Polizei": 3554,
  "\u2581Char": 3555,
  "\u258195": 3556,
  "\u2581opzichte": 3557,
  "\u2581gang": 3558,
  "\u2581leisten": 3559,
  "du": 3560,
  "lingen": 3561,
  "\u2581amendement": 3562,
  "\u2581wacht": 3563,
  "\u2581beschreven": 3564,
  "\u2581Tom": 3565,
  "\u2581Ferien": 3566,
  "\u2581nadat": 3567,
  "\u2581toegevoegd": 3568,
  "\u2581ouders": 3569,
  "\u2581geloven": 3570,
  "\u2581hervorming": 3571,
  "ni": 3572,
  "produkten": 3573,
  "07": 3574,
  "\u2581voorwaarde": 3575,
  "\u2581wahrscheinlich": 3576,
  "\u2581trekken": 3577,
  "\u2581abge": 3578,
  "mittel": 3579,
  "\u2581Zivil": 3580,
  "\u2581ferner": 3581,
  "\u2581gesamte": 3582,
  "\u2581ERLASSEN": 3583,
  "\u2581Richtung": 3584,
  "rin": 3585,
  "\u2581Nog": 3586,
  "\u2581onderwerp": 3587,
  "\u2581('": 3588,
  "\u2581praktijk": 3589,
  "\u2581nachdem": 3590,
  "europa": 3591,
  "\u2581Anzeige": 3592,
  "\u2581Reform": 3593,
  "\u2581afdeling": 3594,
  "eb": 3595,
  "\u2581eingef\u00fchrt": 3596,
  "\u2581gebruikte": 3597,
  "ba": 3598,
  "\u2581(5)": 3599,
  "\u2581Einzel": 3600,
  "22": 3601,
  "\u2581Glauben": 3602,
  "lf": 3603,
  "\u2581hoogste": 3604,
  "\u2581HAT": 3605,
  "\u2581Initiative": 3606,
  "\u2581finanzielle": 3607,
  "\u2581st\u00e4rker": 3608,
  "\u258165": 3609,
  "\u2581Par": 3610,
  "32": 3611,
  "\u2581voldaan": 3612,
  "\u2581EP": 3613,
  "one": 3614,
  "\u2581Seit": 3615,
  "\u2581einzelstaatlich": 3616,
  "\u2581Mac": 3617,
  "anz": 3618,
  "\u2581Pri": 3619,
  "\u2581Film": 3620,
  "\u2581kent": 3621,
  "PPE": 3622,
  "raum": 3623,
  "\u2581Ziffer": 3624,
  "\u2581Wege": 3625,
  "\u2581succes": 3626,
  "\u2581positieve": 3627,
  "OK": 3628,
  "\u2581Verkauf": 3629,
  "dro": 3630,
  "\u2581versuchen": 3631,
  "\u2581verschil": 3632,
  "\u2581handen": 3633,
  "\u2581automatisch": 3634,
  "\u2581verbunden": 3635,
  "\u2581Ware": 3636,
  "\u2581midden": 3637,
  "\u2581kort": 3638,
  "\u2581Bu": 3639,
  "\u2581Technologie": 3640,
  "\u2581aanzienlijke": 3641,
  "hl": 3642,
  "our": 3643,
  "ya": 3644,
  "\u2581Protokoll": 3645,
  "\u2581Denn": 3646,
  "\u2581Hoch": 3647,
  "\u25811984": 3648,
  "sbestimmungen": 3649,
  "\u2581vis": 3650,
  "\u2581Ressourcen": 3651,
  "\u2581allgemeine": 3652,
  "\u2581zichzelf": 3653,
  "\u2581regionalen": 3654,
  "\u2581,\"": 3655,
  "ontwikkeling": 3656,
  "\u2581klanten": 3657,
  "\u2581test": 3658,
  "ama": 3659,
  "\u2581langs": 3660,
  "\u2581Israel": 3661,
  "\u2581gebeuren": 3662,
  "\u2581geschikt": 3663,
  "\u2581Post": 3664,
  "\u2581wunder": 3665,
  "\u2581voertuig": 3666,
  "\u2581N\u00e4he": 3667,
  "\u2581Zuid": 3668,
  "\u2581Gelegenheit": 3669,
  "\u2581Morgen": 3670,
  "\u00e1": 3671,
  "ano": 3672,
  "78": 3673,
  "\u2581Tra": 3674,
  "dra": 3675,
  "\u2581technologische": 3676,
  "\u2581Or": 3677,
  "\u2581fase": 3678,
  "\u2581Cor": 3679,
  "\u2581entweder": 3680,
  "\u2581toegestaan": 3681,
  "\u2581Neem": 3682,
  "\u2581Voorstel": 3683,
  "\u2581mo": 3684,
  "\u2581Anspruch": 3685,
  "\u2581bewijs": 3686,
  "lage": 3687,
  "\u2581Gebiete": 3688,
  "\u2581eingesetzt": 3689,
  "\u2581verzocht": 3690,
  "\u2581kun": 3691,
  "AT": 3692,
  "\u2581christen": 3693,
  "\u2581W\u00e4hrend": 3694,
  "\u2581EGKS": 3695,
  "\u2581VER": 3696,
  "lik": 3697,
  "uren": 3698,
  "\u2581gekozen": 3699,
  "\u2581waaraan": 3700,
  "\u258164": 3701,
  "\u2581aanwezig": 3702,
  "\u2581erkenning": 3703,
  "\u258119.": 3704,
  "\u2581overige": 3705,
  "\u2581Welke": 3706,
  "\u258186": 3707,
  "\u2581eraan": 3708,
  "\u2581fout": 3709,
  "\u2581Krieg": 3710,
  "\u2581Beitritt": 3711,
  "49": 3712,
  "\u2581Sektor": 3713,
  "\u2581gr\u00f6\u00dfere": 3714,
  "\u2581HEEFT": 3715,
  "33": 3716,
  "\u2581bevoegdheden": 3717,
  "\u2581onderhavige": 3718,
  "\u2581ontwikkelingen": 3719,
  "\u2581See": 3720,
  "\u2581Dauer": 3721,
  "\u2581Test": 3722,
  "\u2581verbindlich": 3723,
  "\u2581Vorhaben": 3724,
  "\u2581richting": 3725,
  "\u2581verzoeken": 3726,
  "sam": 3727,
  "ht": 3728,
  "\u2581loop": 3729,
  "\u2581danken": 3730,
  "IS": 3731,
  "\u2581Stellung": 3732,
  "\u2581Mehrheit": 3733,
  "\u2581Tor": 3734,
  "DA": 3735,
  "\u2581reis": 3736,
  "\u2581geboren": 3737,
  "\u2581gehoord": 3738,
  "\u2581vergeten": 3739,
  "\u2581onderzocht": 3740,
  "\u2581Folgen": 3741,
  "\u2581leeftijd": 3742,
  "\u258187": 3743,
  "\u258142": 3744,
  "\u2581Gl\u00fcck": 3745,
  "\u258143": 3746,
  "\u2581Sonder": 3747,
  "\u2581voel": 3748,
  "by": 3749,
  "\u2581grenzen": 3750,
  "\u2581bezig": 3751,
  "\u2581Stand": 3752,
  "hel": 3753,
  "55": 3754,
  "\u2581BE": 3755,
  "48": 3756,
  "dom": 3757,
  "\u2581ACS": 3758,
  "ts": 3759,
  "\u2581verf\u00fcgbar": 3760,
  "\u2581veiligheids": 3761,
  "naam": 3762,
  "\u2581Menschenrechte": 3763,
  "\u2581Mengen": 3764,
  "\u2581Fr\u00fch": 3765,
  "ng": 3766,
  "\u2581vertreten": 3767,
  "\u2581oorlog": 3768,
  "wer": 3769,
  "\u2581instrument": 3770,
  "ijdens": 3771,
  "part": 3772,
  "\u2581vorige": 3773,
  "\u2581Himmel": 3774,
  "An": 3775,
  "ition": 3776,
  "\u2581gekommen": 3777,
  "\u2581Boot": 3778,
  "\u2581Ont": 3779,
  "\u2581Schlaf": 3780,
  "36": 3781,
  "\u2581bed": 3782,
  "44": 3783,
  "\u2581verf\u00fcgt": 3784,
  "\u2581aufgef\u00fchrten": 3785,
  "\u2581Hinsicht": 3786,
  "\u2581Amsterdam": 3787,
  "\u2581Linie": 3788,
  "\u2581entsprechende": 3789,
  "\u2581Barcelona": 3790,
  "\u2581Schl\u00fcssel": 3791,
  "serv": 3792,
  "\u2581bringt": 3793,
  "\u2581\u00d6ffentlichkeit": 3794,
  "\u2581Gu": 3795,
  "\u2581\u00fcberhaupt": 3796,
  "ierte": 3797,
  "\u2581<": 3798,
  "\u2581lediglich": 3799,
  "\u2581conclusies": 3800,
  "\u2581Gib": 3801,
  "par": 3802,
  "\u2581ausschlie\u00dflich": 3803,
  "als": 3804,
  "\u2581vanwege": 3805,
  "\u2581Inseln": 3806,
  "ding": 3807,
  "68": 3808,
  "\u2581TV": 3809,
  "i\u00eb": 3810,
  "\u2581alsook": 3811,
  "\u2581luchtvaart": 3812,
  "\u2581leer": 3813,
  "\u2581bar": 3814,
  "let": 3815,
  "\u2581fordert": 3816,
  "\u2581gern": 3817,
  "tijd": 3818,
  "\u2581immers": 3819,
  "ont": 3820,
  "\u2581ontstaan": 3821,
  "\u2581Gesetz": 3822,
  "\u2581Empfehlungen": 3823,
  "\u2581hiervan": 3824,
  "\u2581produkt": 3825,
  "27": 3826,
  "\u2581kenmerken": 3827,
  "\u2581EEG": 3828,
  "\u2581Val": 3829,
  "\u2581verwerking": 3830,
  "\u2581prachtig": 3831,
  "ans": 3832,
  "\u2581Spa": 3833,
  "\u258110%": 3834,
  "\u2581Gemeinschafts": 3835,
  "\u2581gesproken": 3836,
  "tur": 3837,
  "\u2581versterken": 3838,
  "\u2581lag": 3839,
  "\u2581bedraagt": 3840,
  "\u2581karakter": 3841,
  "\u2581enz": 3842,
  "ix": 3843,
  "\u2581Online": 3844,
  "\u2581Stahl": 3845,
  "\u2581gevraagd": 3846,
  "\u2581Personal": 3847,
  "\u00dc": 3848,
  "ismus": 3849,
  "strategie": 3850,
  "\u2581daarvoor": 3851,
  "\u2581beperken": 3852,
  "\u25811983": 3853,
  "hal": 3854,
  "bis": 3855,
  "\u2581Erfahrungen": 3856,
  "IN": 3857,
  "Ich": 3858,
  "\u25817,": 3859,
  "79": 3860,
  "huur": 3861,
  "wo": 3862,
  "23": 3863,
  "\u2581Fleisch": 3864,
  "\u2581Noord": 3865,
  "\u258184": 3866,
  "\u2581Partner": 3867,
  "')": 3868,
  "\u2581Freunde": 3869,
  "\u2581Ri": 3870,
  "ete": 3871,
  "skosten": 3872,
  "\u2581suiker": 3873,
  "fl": 3874,
  "\u2581vermeiden": 3875,
  "\u2581seien": 3876,
  "\u258144": 3877,
  "\u2581EIB": 3878,
  "\u2581Beschreibung": 3879,
  "\u2581freien": 3880,
  "\u2581behoefte": 3881,
  "\u2581Duitse": 3882,
  "\u2581Tat": 3883,
  "\u2581Af": 3884,
  "\u25812020": 3885,
  "lust": 3886,
  "\u2581ECB": 3887,
  "\u2581Opfer": 3888,
  "\u2581Erfahrung": 3889,
  "\u2581stem": 3890,
  "tenschappelijke": 3891,
  "han": 3892,
  "\u2581waarden": 3893,
  "\u2581gelegd": 3894,
  "oren": 3895,
  "\u2581Frieden": 3896,
  "\u2581fertig": 3897,
  "\u2581Tochter": 3898,
  "\u25812017": 3899,
  "\u2581schlie\u00dflich": 3900,
  "\u2581Klima": 3901,
  "\u2581falls": 3902,
  "\u2581gemakkelijk": 3903,
  "\u2581Cap": 3904,
  "\u2581ingang": 3905,
  "\u2581Einstellung": 3906,
  "last": 3907,
  "\u2581Sommige": 3908,
  "\u258118.": 3909,
  "\u2581vaststellen": 3910,
  "air": 3911,
  "\u2581mis": 3912,
  "was": 3913,
  "\u2581kostenlos": 3914,
  "Sch": 3915,
  "\u2581diejenigen": 3916,
  "\u2581gingen": 3917,
  "\u2581consument": 3918,
  "\u2581Schluss": 3919,
  "\u2581stimmt": 3920,
  "komen": 3921,
  "\u2581aanzienlijk": 3922,
  "\u2581On": 3923,
  "\u2581Themen": 3924,
  "\u2581Belgien": 3925,
  "\u2581hohen": 3926,
  "\u2581Anfrage": 3927,
  "\u2581Stoffe": 3928,
  "\u2581hoeft": 3929,
  "station": 3930,
  "\u2581richtlijnen": 3931,
  "NL": 3932,
  "\u2581Super": 3933,
  "bal": 3934,
  "\u2581Transport": 3935,
  "\u2581zat": 3936,
  "\u25811980": 3937,
  "\u2581gas": 3938,
  "\u2581Isra\u00ebl": 3939,
  "\u25811:": 3940,
  "\u2581Kor": 3941,
  "\u2581Werk": 3942,
  "\u2581ebenso": 3943,
  "\u2581Institutionen": 3944,
  "\u2581Gar": 3945,
  "\u2581Steuern": 3946,
  "\u2581leidt": 3947,
  "\u2581verrichten": 3948,
  "\u2581Typ": 3949,
  "\u2581staten": 3950,
  "ub": 3951,
  "\u2581Video": 3952,
  "tr": 3953,
  "\u2581Dialog": 3954,
  "\u2581verantwortlich": 3955,
  "ott": 3956,
  "bringen": 3957,
  "\u2581ontwikkeld": 3958,
  "\u2581[...]": 3959,
  "gleich": 3960,
  "bedingungen": 3961,
  "licht": 3962,
  "\u2581soweit": 3963,
  "-1": 3964,
  "\u2581Nutzen": 3965,
  "gebied": 3966,
  "\u2581minister": 3967,
  "\u2581bekendmaking": 3968,
  "org": 3969,
  "\u2581geschaffen": 3970,
  "\u2581afstand": 3971,
  "Er": 3972,
  "\u2581Ki": 3973,
  "ey": 3974,
  "ski": 3975,
  "groep": 3976,
  "ipp": 3977,
  "\u2581eigentlich": 3978,
  "\u2581jaarlijkse": 3979,
  "\u2581\u00b0": 3980,
  "\u2581systemen": 3981,
  "\u2581nee": 3982,
  "\u2581waarover": 3983,
  "\u2581(2": 3984,
  "format": 3985,
  "stelle": 3986,
  "2005": 3987,
  "\u2581Funktion": 3988,
  "\u258128.": 3989,
  "tet": 3990,
  "avir": 3991,
  "\u2581slecht": 3992,
  "vin": 3993,
  "chi": 3994,
  "\u2581Griechenland": 3995,
  "\u2581douane": 3996,
  "\u2581werkloosheid": 3997,
  "\u2581bi": 3998,
  "\u2581Kat": 3999,
  "\u2581bisher": 4000,
  "\u2581VASTGESTELD": 4001,
  "\u2581Aktivit\u00e4ten": 4002,
  "\u2581Kapital": 4003,
  "\u2581sage": 4004,
  "\u2581Suche": 4005,
  "\u2581bovendien": 4006,
  "top": 4007,
  "95": 4008,
  "dung": 4009,
  "niveau": 4010,
  "mis": 4011,
  "sehen": 4012,
  "\u2581EWG": 4013,
  "\u2581omgeving": 4014,
  "ijn": 4015,
  "\u2581sah": 4016,
  "\u2581Elke": 4017,
  "bed": 4018,
  "\u2581anhand": 4019,
  "\u2581ingevoerd": 4020,
  "\u2581Grunds\u00e4tze": 4021,
  "\u2581gevoel": 4022,
  "\u2581film": 4023,
  "win": 4024,
  "iff": 4025,
  "jo": 4026,
  "\u2581concrete": 4027,
  "\u2581Tier": 4028,
  "\u2581praktische": 4029,
  "low": 4030,
  "\u2581activa": 4031,
  "\u258101": 4032,
  "st\u00fcck": 4033,
  "til": 4034,
  "\u2581Kirche": 4035,
  "\u2581inclusief": 4036,
  "\u2581Pr\u00e4sidenten": 4037,
  "\u2581Mach": 4038,
  "\u2581Zahlung": 4039,
  "vis": 4040,
  "\u2581eenvoudig": 4041,
  "\u2581Eu": 4042,
  "MP": 4043,
  "\u2581oud": 4044,
  "\u2581beschikken": 4045,
  "\u2581Betriebs": 4046,
  "\u2581Warte": 4047,
  "rig": 4048,
  "\u2581vollst\u00e4ndig": 4049,
  "\u2581Overeenkomstig": 4050,
  "\u2581n\u00e4chste": 4051,
  "\u2581doden": 4052,
  "overschrijdende": 4053,
  "\u2581zust\u00e4ndige": 4054,
  "\u2581gew\u00e4hrleistet": 4055,
  "\u2581\u00fcbertragen": 4056,
  "\u2581rechter": 4057,
  "\u2581Wein": 4058,
  "\u2581stelsel": 4059,
  "\u2581wesentlichen": 4060,
  "\u2581procent": 4061,
  "ax": 4062,
  "\u2581elektrische": 4063,
  "\u2581sonstigen": 4064,
  "\u2581samenhang": 4065,
  "\u2581geneesmiddel": 4066,
  "\u2581omschreven": 4067,
  "Europa": 4068,
  "\u2581sonst": 4069,
  "gebracht": 4070,
  "IE": 4071,
  "\u2581Struktur": 4072,
  "laden": 4073,
  "ID": 4074,
  "\u2581Gebruik": 4075,
  "\u2581categorie": 4076,
  "tu": 4077,
  "lay": 4078,
  "\u2581Zwei": 4079,
  "\u2581Bra": 4080,
  "\u2581zugun": 4081,
  "\u2581vorgeschlagen": 4082,
  "\u2581persoonlijke": 4083,
  "\u2581Gewalt": 4084,
  "\u2581Bas": 4085,
  "\u2581Grundsatz": 4086,
  "47": 4087,
  "\u2581F\u00dcR": 4088,
  "\u2581AKP": 4089,
  "\u2581nummer": 4090,
  "\u2581Oost": 4091,
  "\u2581Abschluss": 4092,
  "\u2581service": 4093,
  "\u2581lezen": 4094,
  "\u2581verlangen": 4095,
  "\u2581comit\u00e9": 4096,
  "\u2581Herren": 4097,
  "\u2581erfolgen": 4098,
  "\u2581kiezen": 4099,
  "\u2581Gef\u00fchl": 4100,
  "\u2581openbaar": 4101,
  "\u2581(+": 4102,
  "\u2581Mir": 4103,
  "cor": 4104,
  "gra": 4105,
  "\u2581ouder": 4106,
  "SE": 4107,
  "\u2581wichtigen": 4108,
  "auto": 4109,
  "\u2581Fr": 4110,
  "uff": 4111,
  "\u2581maximum": 4112,
  "\u2581ergeben": 4113,
  "\u2581Auswahl": 4114,
  "\u2581augustus": 4115,
  "\u2581habt": 4116,
  "\u2581studies": 4117,
  "\u2581Air": 4118,
  "\u2581wijzigen": 4119,
  "://": 4120,
  "\u258100": 4121,
  "wis": 4122,
  "\u2581tabel": 4123,
  "\u2581banken": 4124,
  "\u2581entwickeln": 4125,
  "\u2581Herzen": 4126,
  "\u2581arbeidsmarkt": 4127,
  "erd": 4128,
  "tron": 4129,
  "\u2581Maschinen": 4130,
  "\u2581klinische": 4131,
  "\u2581Blick": 4132,
  "\u2581olie": 4133,
  "chel": 4134,
  "\u2581\u00c4nderungsantrag": 4135,
  "\u2581Wird": 4136,
  "\u2581hard": 4137,
  "\u2581staatliche": 4138,
  "\u2581Amerikaanse": 4139,
  "\u2581elementen": 4140,
  "\u2581VN": 4141,
  "sc": 4142,
  "\u2581structuur": 4143,
  "\u2581Wissen": 4144,
  "3,": 4145,
  "\u2581Sch\u00f6n": 4146,
  "\u2581tr\u00e4gt": 4147,
  "\u2581ding": 4148,
  "\u2581Ne": 4149,
  "\u2581versie": 4150,
  "\u2581gerecht": 4151,
  "\u2581Kilometer": 4152,
  "\u2581europ\u00e4ischer": 4153,
  "\u2581ste": 4154,
  "\u2581Initiativen": 4155,
  "\u2581kredieten": 4156,
  "\u2581aanbevelingen": 4157,
  "bt": 4158,
  "\u2581Wohn": 4159,
  "\u2581terecht": 4160,
  "\u2581meines": 4161,
  "ckt": 4162,
  "\u2581Kampf": 4163,
  "maatregelen": 4164,
  "bereich": 4165,
  "\u2581Bereiche": 4166,
  "\u2581buitenlandse": 4167,
  "ura": 4168,
  "\u2581nationaler": 4169,
  "\u2581Verfahrens": 4170,
  "\u2581begrip": 4171,
  "\u2581Irland": 4172,
  "\u2581steunen": 4173,
  "\u2581Johannes": 4174,
  "\u2581st\u00e4ndig": 4175,
  "rum": 4176,
  "\u2581voertuigen": 4177,
  "bau": 4178,
  "\u2581Milch": 4179,
  "ester": 4180,
  "lor": 4181,
  "\u2581KOM": 4182,
  "\u2581gezin": 4183,
  "\u2581garanderen": 4184,
  "\u2581gedacht": 4185,
  "\u2581Innovation": 4186,
  "\u2581sprach": 4187,
  "\u2581bijwerkingen": 4188,
  "\u2581verdient": 4189,
  "\u2581neben": 4190,
  "ov": 4191,
  "ning": 4192,
  "\u2581materiaal": 4193,
  "\u2581kopen": 4194,
  "\u2581fractie": 4195,
  "yn": 4196,
  "schw": 4197,
  "\u2581hetzij": 4198,
  "\u2581Turkije": 4199,
  "\u2581Don": 4200,
  "\u2581Versicherungs": 4201,
  "\u2581bezoek": 4202,
  "\u2581leningen": 4203,
  "\u2581Instrumente": 4204,
  "\u2581Vorbereitung": 4205,
  "\u2581Bilder": 4206,
  "OS": 4207,
  "\u2581activiteit": 4208,
  "uck": 4209,
  "\u2581gleiche": 4210,
  "\u2581melk": 4211,
  "\u2581aangepast": 4212,
  "\u2581zon": 4213,
  "\u2581Heeft": 4214,
  "\u2581geleid": 4215,
  "entwicklung": 4216,
  "\u2581setzt": 4217,
  "46": 4218,
  "ces": 4219,
  "\u2581Wohnung": 4220,
  "tuur": 4221,
  "\u2581woon": 4222,
  "\u2581befinden": 4223,
  "\u2581Entwurf": 4224,
  "\u2581genieten": 4225,
  "geld": 4226,
  "\u2581Chi": 4227,
  "werkingtreding": 4228,
  "\u2581Bett": 4229,
  "[": 4230,
  "\u2581Demokratie": 4231,
  "\u2581Sicherheits": 4232,
  "\u2581beschlossen": 4233,
  "\u2581standaard": 4234,
  "\u2581Pan": 4235,
  "TE": 4236,
  "\u2581Falls": 4237,
  "\u25811982": 4238,
  "\u2581vereiste": 4239,
  "\u2581president": 4240,
  "ence": 4241,
  "\u2581Algemene": 4242,
  "\u2581computer": 4243,
  "\u2581Regierungen": 4244,
  "\u2581\u00c4": 4245,
  "\u2581Wor": 4246,
  "\u2581Tagung": 4247,
  "\u258125.": 4248,
  "\u2581Bem\u00fchungen": 4249,
  "\u25811981": 4250,
  "\u2581Empfehlung": 4251,
  "\u2581aange": 4252,
  "\u25812:": 4253,
  "\u2581B\u00fcro": 4254,
  "bra": 4255,
  "wohn": 4256,
  "\u2581speciaal": 4257,
  "\u2581Camp": 4258,
  "\u2581mehreren": 4259,
  "\u2581einschl\u00e4gigen": 4260,
  "\u2581\u00e4u\u00dferst": 4261,
  "fo": 4262,
  "\u2581Ferner": 4263,
  "\u2581tegenover": 4264,
  "\u2581gewezen": 4265,
  "\u2581moderne": 4266,
  "2002": 4267,
  "\u2581sehe": 4268,
  "werte": 4269,
  "\u2581Urteil": 4270,
  "\u2581angesichts": 4271,
  "\u2581Essen": 4272,
  "\u2581voordeel": 4273,
  "\u2581tonen": 4274,
  "\u2581Konferenz": 4275,
  "\u2581beeld": 4276,
  "\u2581beschikt": 4277,
  "kla": 4278,
  "\u2581erfahren": 4279,
  "\u2581geef": 4280,
  "ering": 4281,
  "\u2581aanbevolen": 4282,
  "\u2581T\u00fcrkei": 4283,
  "\u2581nam": 4284,
  "1,": 4285,
  "\u2581su": 4286,
  "\u2581\u00fcbermittelt": 4287,
  "98": 4288,
  "\u2581GE": 4289,
  "\u2581betr\u00e4gt": 4290,
  "\u2581OP": 4291,
  "\u2581Nebenwirkungen": 4292,
  "\u2581Wirksamkeit": 4293,
  "\u2581Zeichen": 4294,
  "\u2581gewonnen": 4295,
  "\u2581Transparenz": 4296,
  "waar": 4297,
  "\u2581uitwisseling": 4298,
  "\u2581Start": 4299,
  "\u2581buurt": 4300,
  "\u2581begrepen": 4301,
  "\u2581Binnen": 4302,
  "unt": 4303,
  "\u258194": 4304,
  "\u2581Risiken": 4305,
  "41": 4306,
  "\u2581Berichte": 4307,
  "\u2581Sorge": 4308,
  "\u2581Klein": 4309,
  "\u2581gesetzt": 4310,
  "sprogramma": 4311,
  "rus": 4312,
  "las": 4313,
  "\u258156": 4314,
  "\u2581software": 4315,
  "\u2581verslagen": 4316,
  "\u2581Grenzen": 4317,
  "\u2581verliezen": 4318,
  "\u2581wegens": 4319,
  "\u2581gepr\u00fcft": 4320,
  "gu": 4321,
  "abel": 4322,
  "mi": 4323,
  "\u2581referentie": 4324,
  "\u2581schriftelijk": 4325,
  "\u258191": 4326,
  "\u258196": 4327,
  "\u2581pakken": 4328,
  "ING": 4329,
  "r\u00fcckt": 4330,
  "\u2581geschlossen": 4331,
  "\u258149": 4332,
  "\u2581Reglement": 4333,
  "\u2581Ac": 4334,
  "\u2581alsof": 4335,
  "if": 4336,
  "\u2581afzonderlijke": 4337,
  "\u2581100%": 4338,
  "\u2581lijn": 4339,
  "\u2581Tro": 4340,
  "\u2581herziening": 4341,
  "\u2581US": 4342,
  "\u2581Jeder": 4343,
  "\u2581Haushalt": 4344,
  "\u2581Gegenstand": 4345,
  "\u2581Normen": 4346,
  "Schlussfolgerung": 4347,
  "\u2581Gold": 4348,
  "\u00c4": 4349,
  "0.000": 4350,
  "\u2581Systems": 4351,
  "\u2581betaald": 4352,
  "69": 4353,
  "\u2581Kontrollen": 4354,
  "ico": 4355,
  "\u2581Aktion": 4356,
  "\u00fcge": 4357,
  "\u2581Punkte": 4358,
  "\u2581CH": 4359,
  "Sehr": 4360,
  "haal": 4361,
  "\u2581beperkingen": 4362,
  "\u2581onderworpen": 4363,
  "\u2581berufliche": 4364,
  "\u25812019": 4365,
  "loof": 4366,
  "\u2581streven": 4367,
  "punt": 4368,
  "\u2581ersetzt": 4369,
  "\u2581ausge": 4370,
  "\u2581best\u00e4tigt": 4371,
  "\u2581verlassen": 4372,
  "vent": 4373,
  "\u2581obwohl": 4374,
  "era": 4375,
  "\u2581recente": 4376,
  "\u258123.": 4377,
  "\u2581duidelijke": 4378,
  "\u2581Pen": 4379,
  "\u2581Sal": 4380,
  "\u2581stel": 4381,
  "zug": 4382,
  "\u2581hervor": 4383,
  "\u2581Abgeordneten": 4384,
  "heden": 4385,
  "\u2581tenzij": 4386,
  "legen": 4387,
  "\u258120%": 4388,
  "\u2581Anhangs": 4389,
  "\u2581reeks": 4390,
  "\u2581discussie": 4391,
  "\u2581pi": 4392,
  "\u2581onge": 4393,
  "\u258177": 4394,
  "\u2581mond": 4395,
  "\u2581methode": 4396,
  "ders": 4397,
  "\u2581jongen": 4398,
  "\u2581warten": 4399,
  "\u2581danke": 4400,
  "\u2581inderdaad": 4401,
  "\u2581Dienste": 4402,
  "\u2581\u00dcbereinkommen": 4403,
  "\u2581Fahrzeug": 4404,
  "\u2581Angebot": 4405,
  "gie": 4406,
  "\u2581Garantie": 4407,
  "bin": 4408,
  "\u2581plek": 4409,
  "\u2581oorspronkelijke": 4410,
  "\u2581Vraag": 4411,
  "\u2581Eigenschaften": 4412,
  "for": 4413,
  "\u2581brauche": 4414,
  "laub": 4415,
  "\u2581jeweils": 4416,
  "\u2581stappen": 4417,
  "\u2581Monat": 4418,
  "\u2581verplichting": 4419,
  "oot": 4420,
  "\u2581dritten": 4421,
  "lick": 4422,
  "sion": 4423,
  "\u2581Hal": 4424,
  "bu": 4425,
  "\u2581gekregen": 4426,
  "\u2581huid": 4427,
  "\u2581hohe": 4428,
  "\u2581li": 4429,
  "\u2581ta": 4430,
  "\u258146": 4431,
  "ett": 4432,
  "\u2581Frank": 4433,
  "\u00b0": 4434,
  "\u2581Richt": 4435,
  "\u2581lesen": 4436,
  "\u2581media": 4437,
  "\u2581F\u00e4lle": 4438,
  "\u2581meter": 4439,
  "maatschappij": 4440,
  "\u2581hogere": 4441,
  "\u2581Standard": 4442,
  "\u2581noodzakelijke": 4443,
  "\u2581Kontroll": 4444,
  "\u2581geschiedenis": 4445,
  "\u2581stoppen": 4446,
  "\u258102": 4447,
  "UNG": 4448,
  "Al": 4449,
  "\u2581Verh\u00e4ltnis": 4450,
  "\u2581Genau": 4451,
  "\u2581All": 4452,
  "\u2581fundamentele": 4453,
  "\u2581Darlehen": 4454,
  "\u2581h\u00f6rt": 4455,
  "\u2581gevolgd": 4456,
  "artikel": 4457,
  "schuldig": 4458,
  "arten": 4459,
  "out": 4460,
  "38": 4461,
  "\u2581Heil": 4462,
  "\u2581injectie": 4463,
  "\u2581Tu": 4464,
  "ria": 4465,
  "portal": 4466,
  "\u2581alten": 4467,
  "\u2581Zaken": 4468,
  "\u2581internet": 4469,
  "lijf": 4470,
  "\u2581herstel": 4471,
  "\u2581Gewicht": 4472,
  "reg": 4473,
  "\u258154": 4474,
  "wesen": 4475,
  "schlaf": 4476,
  "\u2581Kombination": 4477,
  "niet": 4478,
  "\u2581gehe": 4479,
  "ns": 4480,
  "asse": 4481,
  "\u2581gemeente": 4482,
  "\u2581Motor": 4483,
  "\u2581top": 4484,
  "\u2581Leg": 4485,
  "\u2581Voll": 4486,
  "\u2581Ph": 4487,
  "\u2581functie": 4488,
  "ign": 4489,
  "llah": 4490,
  "\u2581Regelungen": 4491,
  "\u2581voorziet": 4492,
  "mmer": 4493,
  "\u2581Weitere": 4494,
  "\u2581Kolleg": 4495,
  "\u2581anderzijds": 4496,
  "\u2581democratie": 4497,
  "band": 4498,
  "\u2581hoor": 4499,
  "\u2581aldus": 4500,
  "erin": 4501,
  "\u2581T\u00fcr": 4502,
  "\u2581spezifischen": 4503,
  "\u2581laag": 4504,
  "\u2581Hinweis": 4505,
  "\u2581erneut": 4506,
  "\u2581plaatselijke": 4507,
  "\u258141": 4508,
  "\u2581verf\u00fcgen": 4509,
  "\u2581Drogen": 4510,
  "76": 4511,
  "wi": 4512,
  "\u2581angegeben": 4513,
  "\u2581eeuw": 4514,
  "\u2581Gebrauch": 4515,
  "\u2581fahren": 4516,
  "0/": 4517,
  "\u25818,": 4518,
  "\u2581Gal": 4519,
  "\u2581toestemming": 4520,
  "verfahren": 4521,
  "\u2581400": 4522,
  "ille": 4523,
  "\u2581Uitvoerings": 4524,
  "\u2581VERORDNUNG": 4525,
  "cl": 4526,
  "\u258172": 4527,
  "97": 4528,
  "\u2581zeven": 4529,
  "\u2581Code": 4530,
  "\u2581ziemlich": 4531,
  "\u2581voldoet": 4532,
  "\u2581financieel": 4533,
  "\u2581kijk": 4534,
  "\u2581Infrastruktur": 4535,
  "\u2581gast": 4536,
  "\u2581Berechnung": 4537,
  "\u2581brief": 4538,
  "\u2581Systeme": 4539,
  "wand": 4540,
  "\u2581handels": 4541,
  "\u2581start": 4542,
  "\u2581regeringen": 4543,
  "aren": 4544,
  "\u2581voornamelijk": 4545,
  "\u2581Seine": 4546,
  "\u2581Waffen": 4547,
  "\u2581Begriff": 4548,
  "\u2581heet": 4549,
  "bon": 4550,
  "act": 4551,
  "ui": 4552,
  "\u2581eher": 4553,
  "\u2581sterke": 4554,
  "\u2581solcher": 4555,
  "\u2581verleden": 4556,
  "\u2581zun\u00e4chst": 4557,
  "therapie": 4558,
  "erzeugnisse": 4559,
  "durch": 4560,
  "\u2581begrijpen": 4561,
  "\u2581burger": 4562,
  "\u2581Moet": 4563,
  "\u2581Akte": 4564,
  "\u25811979": 4565,
  "\u2581cultuur": 4566,
  "ini": 4567,
  "85": 4568,
  "\u2581dochter": 4569,
  "\u2581veroorzaakt": 4570,
  "PT": 4571,
  "\u2581zodanig": 4572,
  "kor": 4573,
  "lan": 4574,
  "\u2581gr\u00f6\u00dften": 4575,
  "\u2581broer": 4576,
  "37": 4577,
  "**": 4578,
  "bild": 4579,
  "\u2581verhindern": 4580,
  "ole": 4581,
  "\u2581dollar": 4582,
  "\u2581Preisen": 4583,
  "\u2581vergelijking": 4584,
  "agen": 4585,
  "\u2581vraagt": 4586,
  "\u2581Midden": 4587,
  "\u2581beteiligt": 4588,
  "DR": 4589,
  "ita": 4590,
  "producten": 4591,
  "\u2581Praxis": 4592,
  "\u2581aangewezen": 4593,
  "\u2581Ba": 4594,
  "mus": 4595,
  "\u2581Idee": 4596,
  "tic": 4597,
  "\u2581gr\u00f6\u00dfer": 4598,
  "96": 4599,
  "\u2581Leistungen": 4600,
  "\u2581Bijlage": 4601,
  "\u2581natuur": 4602,
  "\u2581ange": 4603,
  "\u2581Internationale": 4604,
  "\u2581agenda": 4605,
  "\u2581toestand": 4606,
  "\u2581Beurteilung": 4607,
  "technologie": 4608,
  "lei": 4609,
  "82": 4610,
  "icht": 4611,
  "\u2581kwesties": 4612,
  "dia": 4613,
  "\u2581Zoll": 4614,
  "\u2581bestemming": 4615,
  "\u2581gebrek": 4616,
  "\u2581Protocol": 4617,
  "\u2581verandering": 4618,
  "\u2581trouw": 4619,
  "\u2581vorgeschlagenen": 4620,
  "\u2581wijn": 4621,
  "\u2581toediening": 4622,
  "\u2581Informatie": 4623,
  "\u2581Want": 4624,
  "\u2581Not": 4625,
  "sgebied": 4626,
  "\u258127.": 4627,
  "\u2581plattelands": 4628,
  "\u2581vers": 4629,
  "56": 4630,
  "\u2581stabiliteit": 4631,
  "\u2581komme": 4632,
  "\u2581einge": 4633,
  "\u2581wijst": 4634,
  "\u2581deur": 4635,
  "f\u00fchrung": 4636,
  "CE": 4637,
  "mor": 4638,
  "\u2581kaum": 4639,
  "\u2581berekend": 4640,
  "\u2581sch\u00fctzen": 4641,
  "\u2581Luis": 4642,
  "\u2581kreeg": 4643,
  "merk": 4644,
  "\u2581sport": 4645,
  "\u2581Geb\u00e4ude": 4646,
  "hol": 4647,
  "\u2581Ansatz": 4648,
  "\u2581finde": 4649,
  "AR": 4650,
  "\u2581krijg": 4651,
  "\u2581ernstig": 4652,
  "88": 4653,
  "NI": 4654,
  "AP": 4655,
  "59": 4656,
  "att": 4657,
  "ssen": 4658,
  "\u2581Mess": 4659,
  "\u2581VERORDENING": 4660,
  "\u2581motor": 4661,
  "hm": 4662,
  "\u2581prioriteiten": 4663,
  "\u2581Fest": 4664,
  "stehen": 4665,
  "\u2581toepasselijk": 4666,
  "volle": 4667,
  "spiel": 4668,
  "\u2581Rome": 4669,
  "\u2581Maria": 4670,
  "\u2581Web": 4671,
  "\u2581Gedaan": 4672,
  "\u2581bevestigd": 4673,
  "84": 4674,
  "\u2581Vo": 4675,
  "\u00e4h": 4676,
  "\u2581bel": 4677,
  "\u2581gezamenlijke": 4678,
  "\u2581festgesetzt": 4679,
  "\u2581Denemarken": 4680,
  "\u2581hergestellt": 4681,
  "\u2581BIJLAGE": 4682,
  "\u2581culturele": 4683,
  "\u2581gezeigt": 4684,
  "\u2581thema": 4685,
  "\u2581Dem": 4686,
  "\u2581Tagesordnung": 4687,
  "\u2581baan": 4688,
  "SA": 4689,
  "\u2581Angelegenheiten": 4690,
  "\u2581ergreifen": 4691,
  "b\u00fcro": 4692,
  "\u2581erzielt": 4693,
  "\u2581staal": 4694,
  "\u2581ondersteunen": 4695,
  "\u2581Sitz": 4696,
  "\u2581ju": 4697,
  "\u258126.": 4698,
  "\u2581overweging": 4699,
  "\u2581gr\u00f6\u00dfte": 4700,
  "ON": 4701,
  "\u2581sterben": 4702,
  "ika": 4703,
  "\u2581Schwester": 4704,
  "\u2581Jan": 4705,
  "\u2581Aktionen": 4706,
  "\u2581uitvoeren": 4707,
  "instellingen": 4708,
  "\u2581abgeschlossen": 4709,
  "\u2581Zwischen": 4710,
  "ekker": 4711,
  "St": 4712,
  "\u2581Nord": 4713,
  "\u2581Weiter": 4714,
  "\u2581erkend": 4715,
  "\u2581entscheiden": 4716,
  "schau": 4717,
  "king": 4718,
  "\u2581Valencia": 4719,
  "tern": 4720,
  "\u2581bedrijfstak": 4721,
  "\u2581drugs": 4722,
  "\u2581belast": 4723,
  "tine": 4724,
  "\u2581gewicht": 4725,
  "mat": 4726,
  "\u2581verabschiedet": 4727,
  "\u2581vorbei": 4728,
  "\u2581Toch": 4729,
  "tung": 4730,
  "eeuw": 4731,
  "Re": 4732,
  "\u258151": 4733,
  "\u2581Vereinbarungen": 4734,
  "cker": 4735,
  "wert": 4736,
  "\u2581legen": 4737,
  "\u2581voorbereiding": 4738,
  "gar": 4739,
  "Mail": 4740,
  "\u2581Ver\u00e4nderungen": 4741,
  "\u00ebn": 4742,
  "\u2581\u00dcbereinstimmung": 4743,
  "\u2581Zee": 4744,
  "\u2581Sicht": 4745,
  "tuigen": 4746,
  "\u2581links": 4747,
  "pp": 4748,
  "\u258147": 4749,
  "\u2581moeilijkheden": 4750,
  "001": 4751,
  "anlage": 4752,
  "rel": 4753,
  "\u2581Net": 4754,
  "daan": 4755,
  "\u2581bewegen": 4756,
  "ges": 4757,
  "\u2581betrachtet": 4758,
  "\u2581evenals": 4759,
  "\u25811)": 4760,
  "\u2581Sinn": 4761,
  "\u2581Verder": 4762,
  "91": 4763,
  "\u2581staatssteun": 4764,
  "\u2581Kooperation": 4765,
  "oom": 4766,
  "\u2581gezicht": 4767,
  "smiddelen": 4768,
  "\u2581enerzijds": 4769,
  "fin": 4770,
  "\u2581vermindering": 4771,
  "\u2581para": 4772,
  "\u2581maakte": 4773,
  "\u2581sn": 4774,
  "aria": 4775,
  "\u2581Zahlungen": 4776,
  "\u2581Verringerung": 4777,
  "ore": 4778,
  "\u2581min": 4779,
  "\u2581gedeelte": 4780,
  "\u2581rust": 4781,
  "\u2581begr\u00fc\u00dft": 4782,
  "\u2581erin": 4783,
  "\u2581Wieder": 4784,
  "2)": 4785,
  "\u2581Zucker": 4786,
  "81": 4787,
  "\u2581bewust": 4788,
  "\u2581(6)": 4789,
  "\u2581R\u00fcck": 4790,
  "\u2581deskundigen": 4791,
  "\u2581Bad": 4792,
  "ada": 4793,
  "\u2581empfohlen": 4794,
  "\u2581par": 4795,
  "US": 4796,
  "\u2581verwijderd": 4797,
  "nd": 4798,
  "kas": 4799,
  "\u2581Aufmerksamkeit": 4800,
  "staat": 4801,
  "\u2581geeignet": 4802,
  ".11.": 4803,
  "43": 4804,
  "\u2581Holz": 4805,
  "verkehr": 4806,
  "\u2581genehmigt": 4807,
  "\u2581openen": 4808,
  "\u2581Schau": 4809,
  "\u2581kandidaat": 4810,
  "\u2581schlecht": 4811,
  "mod": 4812,
  "Das": 4813,
  "\"-": 4814,
  "\u2581maak": 4815,
  "\u2581schrijven": 4816,
  "\u2581Stra\u00dfen": 4817,
  "\u2581voornaamste": 4818,
  "\u2581raadpleging": 4819,
  "\u2581spricht": 4820,
  "\u2581UN": 4821,
  "\u2581nader": 4822,
  "\u2581ausgenommen": 4823,
  "\u2581overal": 4824,
  "cho": 4825,
  "IL": 4826,
  "\u2581vastgelegd": 4827,
  "\u2581Verarbeitung": 4828,
  "\u2581ANHANG": 4829,
  "\u2581Veel": 4830,
  "\u2581Pass": 4831,
  "\u2581untersucht": 4832,
  "ara": 4833,
  "\u2581stimuleren": 4834,
  "voll": 4835,
  "\u2581kerk": 4836,
  "\u2581Versammlung": 4837,
  "\u2581Wetter": 4838,
  "\u2581sen": 4839,
  "\u2581voorbij": 4840,
  "\u2581keiner": 4841,
  "\u2581machines": 4842,
  "\u2581Ehe": 4843,
  "sverordnung": 4844,
  "oog": 4845,
  "\u2581bezeichnet": 4846,
  "\u2581Heute": 4847,
  "\u2581stond": 4848,
  "\u2581toegediend": 4849,
  "\u2581Eli": 4850,
  "\u2581wichtiger": 4851,
  "\u2581Medien": 4852,
  "tag": 4853,
  "\u2581St\u00e4rkung": 4854,
  "\u2581Freiheit": 4855,
  "\u2581Pflanzen": 4856,
  "\u2581Anlagen": 4857,
  "\u2581ru": 4858,
  "stein": 4859,
  "\u2581End": 4860,
  "\u00f3": 4861,
  "dl": 4862,
  "89": 4863,
  "\u2581Totaal": 4864,
  "\u00f6se": 4865,
  "\u2581Ganz": 4866,
  "\u2581bezug": 4867,
  "64": 4868,
  "\u2581opslag": 4869,
  "\u258152": 4870,
  "\u2581erwarten": 4871,
  "\u2581slotte": 4872,
  "\u2581Schule": 4873,
  "\u2581strategische": 4874,
  "\u2581biologische": 4875,
  "\u2581titel": 4876,
  "\u2581internationaal": 4877,
  "\u2581eenheid": 4878,
  "\u2581Feuer": 4879,
  "\u2581unverz\u00fcglich": 4880,
  "\u2581zumindest": 4881,
  "\u2581Kaffee": 4882,
  "speriode": 4883,
  "\u2581Gi": 4884,
  "\u2581Kein": 4885,
  "\u2581onafhankelijk": 4886,
  "\u2581Gemeinsame": 4887,
  "66": 4888,
  "\u2581Verwirklichung": 4889,
  "\u2581erh\u00f6ht": 4890,
  "\u2581noemen": 4891,
  "\u2581uitgebreid": 4892,
  "\u2581daarna": 4893,
  ".10.": 4894,
  "\u2581schat": 4895,
  "\u2581[3]": 4896,
  "\u2581Paris": 4897,
  "hilfe": 4898,
  "TS": 4899,
  "\u2581versterking": 4900,
  "\u2581t\u00e4tig": 4901,
  "ringen": 4902,
  "\u2581gemeenschap": 4903,
  "\u2581geografische": 4904,
  "\u2581capaciteit": 4905,
  "\u2581gl\u00fccklich": 4906,
  "\u2581y": 4907,
  "\u2581Jede": 4908,
  "\u258153": 4909,
  "\u2581opdracht": 4910,
  "\u2581behulp": 4911,
  "\u2581erkl\u00e4ren": 4912,
  "\u2581controleren": 4913,
  "gaan": 4914,
  "\u2581Wissenschaft": 4915,
  "ierten": 4916,
  "rt": 4917,
  "r\u00e4": 4918,
  "\u2581tra": 4919,
  "\u2581nen": 4920,
  "\u2581voorlopige": 4921,
  "isme": 4922,
  "\u2581arbeitet": 4923,
  "wind": 4924,
  "\u2581adres": 4925,
  "\u2581apparatuur": 4926,
  "ala": 4927,
  "\u2581fr\u00fch": 4928,
  "\u2581boeken": 4929,
  "\u2581regelm\u00e4\u00dfig": 4930,
  "\u2581\u00d6l": 4931,
  "\u2581factoren": 4932,
  "\u2581oplossingen": 4933,
  "\u2581Botschaft": 4934,
  "\u2581Rom": 4935,
  "\u2581Tages": 4936,
  "ziehen": 4937,
  "bit": 4938,
  "\u2581Zust\u00e4ndigkeit": 4939,
  "\u2581Pat": 4940,
  "rich": 4941,
  "prijs": 4942,
  "\u2581Unser": 4943,
  "it\u00e4t": 4944,
  "\u25811.3.": 4945,
  "gesch": 4946,
  "\u2581Unterschiede": 4947,
  "\u2581praktijken": 4948,
  "Voor": 4949,
  "\u2581binnenlandse": 4950,
  "\u2581umfasst": 4951,
  "\u2581Teufel": 4952,
  "tage": 4953,
  "\u2581Twee": 4954,
  "ood": 4955,
  "ziel": 4956,
  "\u2581len": 4957,
  "ets": 4958,
  "\u2581Austausch": 4959,
  "r\u00fc": 4960,
  "\u2581mooie": 4961,
  "toe": 4962,
  "\u2581ministers": 4963,
  "\u2581eben": 4964,
  "\u258124.": 4965,
  "\u2581dagegen": 4966,
  "\u2581bron": 4967,
  "eck": 4968,
  "ku": 4969,
  "\u2581t\u00e4glich": 4970,
  "\u2581lokalen": 4971,
  "versicherung": 4972,
  "\u2581Priorit\u00e4ten": 4973,
  "\u2581et": 4974,
  "\u2581lage": 4975,
  "\u2581evenwicht": 4976,
  "\u2581helft": 4977,
  "\u2581sieben": 4978,
  "\u2581sp\u00e4t": 4979,
  "\u2581behalve": 4980,
  "GE": 4981,
  "\u2581afkomstig": 4982,
  "\u2581zus\u00e4tzlichen": 4983,
  "\u2581Ger\u00e4te": 4984,
  "\u2581harmonisatie": 4985,
  "spel": 4986,
  "\u2581Schlie\u00dflich": 4987,
  "\u2581geringe": 4988,
  "activiteiten": 4989,
  "ase": 4990,
  "\u2581ruhig": 4991,
  "\u2581teilen": 4992,
  "rs": 4993,
  "\u2581geheim": 4994,
  "\u2581sleutel": 4995,
  "link": 4996,
  "cr": 4997,
  "\u25811).": 4998,
  "\u2581erwartet": 4999,
  "\u2581Daarnaast": 5000,
  "\u2581percentage": 5001,
  "aten": 5002,
  "\u2581monetaire": 5003,
  "\u2581Zweden": 5004,
  "ian": 5005,
  "\u2581Oostenrijk": 5006,
  "\u2581unbedingt": 5007,
  "\u2581interessant": 5008,
  "lett": 5009,
  "fangen": 5010,
  "\u2581vorgenommen": 5011,
  "\u258182": 5012,
  "\u2581zwaar": 5013,
  "\u2581ernst": 5014,
  "isierung": 5015,
  "\u2581gezet": 5016,
  "periode": 5017,
  "\u2581omvatten": 5018,
  "unk": 5019,
  "\u258162": 5020,
  "\u00fcr": 5021,
  "ili": 5022,
  "\u2581antwoorden": 5023,
  "\u2581Wal": 5024,
  "\u2581Beste": 5025,
  "\u2581kaufen": 5026,
  "\u2581historische": 5027,
  "OP": 5028,
  "teil": 5029,
  "\u2581Golf": 5030,
  "\u2581Chance": 5031,
  "\u2581werkzame": 5032,
  "\u2581gef\u00f6rdert": 5033,
  "\u2581warm": 5034,
  "\u2581lernen": 5035,
  "\u2581kwamen": 5036,
  "\u2581Werte": 5037,
  "ting": 5038,
  "\u2581Anstrengungen": 5039,
  "\u2581snelle": 5040,
  "\u2581getuigen": 5041,
  "\u2581erlaubt": 5042,
  "\u2581verlies": 5043,
  "\u2581Italiaanse": 5044,
  "gegevens": 5045,
  "\u2581Malta": 5046,
  "\u2581tu": 5047,
  "\u2581Erf\u00fcllung": 5048,
  "\u2581W\u00e4hrung": 5049,
  "\u2581erteilt": 5050,
  "\u2581geleverd": 5051,
  "\u2581naleving": 5052,
  "\u2581betalingen": 5053,
  "\u2581zer": 5054,
  "\u2581specifiek": 5055,
  "\u2581Eigen": 5056,
  "\u2581plaatsvinden": 5057,
  "vi": 5058,
  "\u2581Mor": 5059,
  "slanden": 5060,
  "ney": 5061,
  "\u2581Erst": 5062,
  "\u2581Rusland": 5063,
  "\u2581\u00dcbergang": 5064,
  "\u2581Harmonisierung": 5065,
  "\u2581zuletzt": 5066,
  "\u2581details": 5067,
  "\u2581verzekering": 5068,
  "\u2581\u00dcbertragung": 5069,
  "\u2581bot": 5070,
  "\u2581Top": 5071,
  "OR": 5072,
  "kant": 5073,
  "od": 5074,
  "\u2581opdat": 5075,
  "\u2581Port": 5076,
  "\u2581Tre": 5077,
  "\u2581VS": 5078,
  "\u2581verminderen": 5079,
  "\u2581Schul": 5080,
  "\u25813:": 5081,
  "\u2581teilweise": 5082,
  "\u25819,": 5083,
  "\u2581kern": 5084,
  "\u2581cre\u00ebren": 5085,
  "-2-": 5086,
  "ucht": 5087,
  "uw": 5088,
  "\u2581Sha": 5089,
  "\u2581sonstige": 5090,
  "\u2581t\u00f6ten": 5091,
  "\u2581gefinancierd": 5092,
  "\u2581Prozess": 5093,
  "\u2581Erzeugnissen": 5094,
  "\u2581welk": 5095,
  "\u2581Allerdings": 5096,
  "iti": 5097,
  "maal": 5098,
  "\u2581Abs\u00e4tze": 5099,
  "even": 5100,
  "\u2581essen": 5101,
  "kop": 5102,
  "lam": 5103,
  "\u2581http": 5104,
  "\u2581nahe": 5105,
  "ullen": 5106,
  "\u2581250": 5107,
  "\u2581Rede": 5108,
  "\u2581Strom": 5109,
  "\u2581unabh\u00e4ngig": 5110,
  "II": 5111,
  "73": 5112,
  "\u2581berichtet": 5113,
  "\u2581baby": 5114,
  "\u2581sp\u00e4testens": 5115,
  "\u2581voorzieningen": 5116,
  "\u2581Zustimmung": 5117,
  "\u2581Sei": 5118,
  "ado": 5119,
  "\u2581Entwicklungen": 5120,
  "\u2581Phase": 5121,
  "ius": 5122,
  "ru": 5123,
  "\u2581winkel": 5124,
  "holen": 5125,
  "\u2581statistische": 5126,
  "\u2581geb": 5127,
  "papier": 5128,
  "\u2581w\u00e4hlen": 5129,
  "stellung": 5130,
  "42": 5131,
  "\u2581Em": 5132,
  "\u2581Angesichts": 5133,
  "\u2581Sehen": 5134,
  "leider": 5135,
  "\u2581reactie": 5136,
  "\u2581definitie": 5137,
  "\u2581heutige": 5138,
  "\u258189": 5139,
  "\u2581Anbieter": 5140,
  "\u2581verhaal": 5141,
  "\u2581WTO": 5142,
  "\u2581geeignete": 5143,
  "\u2581berekening": 5144,
  "\u2581Anh\u00f6rung": 5145,
  "\u2581Mitteln": 5146,
  "\u2581Zustand": 5147,
  "\u2581Blei": 5148,
  "\u2581Lang": 5149,
  "\u2581twijfel": 5150,
  "\u2581materialen": 5151,
  "\u2581Schuld": 5152,
  "organisationen": 5153,
  "\u2581aanbeveling": 5154,
  "\u2581verblijf": 5155,
  "\u2581Des": 5156,
  "\u2581aangetoond": 5157,
  "\u2581arrest": 5158,
  "iere": 5159,
  "61": 5160,
  "\u2581vereisten": 5161,
  "\u2581ei": 5162,
  "\u2581mache": 5163,
  "\u2581betekenis": 5164,
  "\u2581Gr\u00f6\u00dfe": 5165,
  "\u2581Investitions": 5166,
  "\u2581Bio": 5167,
  "\u2581conferentie": 5168,
  "sektor": 5169,
  "\u2581Kunst": 5170,
  "\u2581video": 5171,
  "\u2581onderlinge": 5172,
  "\u2581vergangen": 5173,
  "\u2581rapport": 5174,
  "\u2581n\u00e4her": 5175,
  "\u2581hieronder": 5176,
  "\u2581schriftlich": 5177,
  "\u2581Staats": 5178,
  "\u2581plannen": 5179,
  "\u2581wou": 5180,
  "\u2581Vereinten": 5181,
  "\u2581Technologien": 5182,
  "\u2581geboden": 5183,
  "\u2581Pas": 5184,
  "\u2581Verslag": 5185,
  "\u2581beperking": 5186,
  "\u2581Wirk": 5187,
  "anna": 5188,
  "\u2581actieve": 5189,
  "auch": 5190,
  "\u2581gewisse": 5191,
  "\u2581darstellt": 5192,
  "\u2581verstehe": 5193,
  "\u2581methoden": 5194,
  "51": 5195,
  "\u2581ausreichend": 5196,
  "\u2581lager": 5197,
  "\u2581Inkrafttreten": 5198,
  "\u2581steden": 5199,
  "\u2581Definition": 5200,
  "\u2581wider": 5201,
  "\u2581terrein": 5202,
  "\u2581f\u00e4llt": 5203,
  "54": 5204,
  "\u2581fand": 5205,
  "\u2581offen": 5206,
  "lau": 5207,
  "\u2581Lager": 5208,
  "l\u00f6sung": 5209,
  "rede": 5210,
  "\u2581eindeutig": 5211,
  "lip": 5212,
  "\u2581Jugend": 5213,
  "\u2581Faktoren": 5214,
  "\u258173": 5215,
  "\u2581avond": 5216,
  "\u2581angemessene": 5217,
  "Le": 5218,
  "\u2581samenleving": 5219,
  "\u2581Au\u00dfen": 5220,
  "\u2581herstellen": 5221,
  "\u2581Leber": 5222,
  "park": 5223,
  "\u2581verbindend": 5224,
  "\u2581verlangt": 5225,
  "\u2581For": 5226,
  "tz": 5227,
  "\u2581bezit": 5228,
  "pin": 5229,
  "\u2581Erh\u00f6hung": 5230,
  "AG": 5231,
  "zi": 5232,
  "\u2581liever": 5233,
  "\u2581Banken": 5234,
  "egal": 5235,
  "\u2581Niederlande": 5236,
  "\u2581Vertr\u00e4ge": 5237,
  "\u2581respectievelijk": 5238,
  "\u2581verbessert": 5239,
  "organisaties": 5240,
  "\u2581begon": 5241,
  "\u2581zitting": 5242,
  "\u2581Bi": 5243,
  "\u2581geluk": 5244,
  "\u2581neues": 5245,
  "\u2581erh\u00f6hen": 5246,
  "\u2581luchthaven": 5247,
  "\u2581netwerken": 5248,
  "\u2581eventueel": 5249,
  "ju": 5250,
  "bwohl": 5251,
  "\u2581Berichts": 5252,
  "ani": 5253,
  "\u2581Methode": 5254,
  "OL": 5255,
  "mp": 5256,
  "\u2581levering": 5257,
  "\u2581Schreiben": 5258,
  "\u2581directe": 5259,
  "\u2581begint": 5260,
  "\u2581Klasse": 5261,
  "\u2581maximal": 5262,
  "\u2581Papier": 5263,
  "\u2581sta": 5264,
  "ondanks": 5265,
  "\u2581Bewertungen": 5266,
  "ologie": 5267,
  "\u2581les": 5268,
  "\u2581Gem\u00fcse": 5269,
  "\u2581Untersuchungen": 5270,
  "\u2581ongeacht": 5271,
  "oni": 5272,
  "sbeh\u00f6rde": 5273,
  "ift": 5274,
  "str": 5275,
  "mut": 5276,
  "\u2581Peter": 5277,
  "\u2581Arbeitsplatz": 5278,
  "\u2581fi": 5279,
  "57": 5280,
  "\u2581danach": 5281,
  "\u2581Arbeitspl\u00e4tze": 5282,
  "\u2581behandelen": 5283,
  "\u2581opge": 5284,
  "\u2581l\u00e4nger": 5285,
  "lus": 5286,
  "IC": 5287,
  "\u2581trans": 5288,
  "sy": 5289,
  "\u2581Unterlagen": 5290,
  "\u2581pa": 5291,
  "\u2581Mc": 5292,
  "\u2581definitieve": 5293,
  "\u2581garantie": 5294,
  "\u2581Fahr": 5295,
  "\u2581l\u00e4uft": 5296,
  "\u2581medische": 5297,
  "\u2581Damen": 5298,
  "\u2581D\u00e4nemark": 5299,
  "gemeinschaft": 5300,
  "\u2581ordening": 5301,
  "\u2581GEMEINSCHAFTEN": 5302,
  "\u2581gedrag": 5303,
  "vir": 5304,
  "\u2581gezogen": 5305,
  "halen": 5306,
  "\u2581Amt": 5307,
  "loos": 5308,
  "\u2581ermee": 5309,
  "ech": 5310,
  "\u2581entschieden": 5311,
  "\u2581angesehen": 5312,
  "ez": 5313,
  "\u2581jongens": 5314,
  "druk": 5315,
  "\u2581essentieel": 5316,
  "83": 5317,
  "\u2581Kern": 5318,
  "\u2581notwendigen": 5319,
  "\u2581Bur": 5320,
  "\u2581Sprachen": 5321,
  "\u2581musste": 5322,
  "ava": 5323,
  "\u2581ausgestattet": 5324,
  "char": 5325,
  "\u2581\u00fcberpr\u00fcfen": 5326,
  "\u2581Dokument": 5327,
  "IG": 5328,
  "stre": 5329,
  "eur": 5330,
  "\u2581ka": 5331,
  "hang": 5332,
  "RO": 5333,
  "akt": 5334,
  "\u2581Partnerschaft": 5335,
  "\u2581aandeel": 5336,
  "\u2581pri": 5337,
  "\u2581gelukkig": 5338,
  "\u2581spielt": 5339,
  "\u2581mits": 5340,
  "logen": 5341,
  "ank": 5342,
  "sniveau": 5343,
  "\u2581privaten": 5344,
  "\u00a1": 5345,
  "\u2581gevaarlijke": 5346,
  "\u258159": 5347,
  "SCH": 5348,
  "\u2581treden": 5349,
  "burg": 5350,
  "\u2581Britse": 5351,
  "\u25815%": 5352,
  "\u2581opstellen": 5353,
  "w\u00e4r": 5354,
  "able": 5355,
  "\u2581commerci\u00eble": 5356,
  "\u2581organen": 5357,
  "\u2581beperkte": 5358,
  "oy": 5359,
  "\u2581aufge": 5360,
  "\u2581GEMEENSCHAPPEN": 5361,
  "\u2581120": 5362,
  "\u2581600": 5363,
  "sing": 5364,
  "\u2581Netz": 5365,
  "\u2581verhogen": 5366,
  "rag": 5367,
  "ight": 5368,
  "\u2581Zweifel": 5369,
  "\u2581zugrunde": 5370,
  "\u2581Mrd": 5371,
  "\u2581\u00d6sterreich": 5372,
  "\u2581derzeitigen": 5373,
  "\u258197": 5374,
  "\u2581banen": 5375,
  "ban": 5376,
  "\u2581schip": 5377,
  "\u2581ar": 5378,
  "lic": 5379,
  "\u2581insuline": 5380,
  "eil": 5381,
  "lat": 5382,
  "\u2581gegenseitige": 5383,
  "\u2581Insulin": 5384,
  "\u2581afgegeven": 5385,
  "bus": 5386,
  "\u2581daarin": 5387,
  "\u2581zufolge": 5388,
  "ple": 5389,
  "ary": 5390,
  "\u2581beslist": 5391,
  "maatschappijen": 5392,
  "\u2581kennisgeving": 5393,
  "\u2581operationele": 5394,
  "\u2581Geb": 5395,
  "\u2581CB": 5396,
  "UR": 5397,
  "\u2581Buchstaben": 5398,
  "\u2581concentratie": 5399,
  "\u2581Spiele": 5400,
  "maken": 5401,
  "\u2581Zusammen": 5402,
  "\u2581ware": 5403,
  "\u2581liet": 5404,
  "aard": 5405,
  "\u2581negatieve": 5406,
  "\u2581protocol": 5407,
  "\u2581Antragsteller": 5408,
  "\u2581democratische": 5409,
  "tik": 5410,
  "\u2581Sektoren": 5411,
  "\u2581uitge": 5412,
  "\u2581persoonlijk": 5413,
  "\u2581verf\u00fcgbaren": 5414,
  "\u2581digitale": 5415,
  "issen": 5416,
  "Gesch\u00e4ftsordnung": 5417,
  "\u2581E\u00e9n": 5418,
  "\u2581beneden": 5419,
  "\u2581versch": 5420,
  "\u258181": 5421,
  "\u2581ontworpen": 5422,
  "\u2581Siehe": 5423,
  "\u2581overeen": 5424,
  "\u2581meerdere": 5425,
  "\u2581wenden": 5426,
  "\u258171": 5427,
  "\u2581richtige": 5428,
  "\u2581Erhaltung": 5429,
  "\u2581zuvor": 5430,
  "basis": 5431,
  "-3": 5432,
  "\u2581Ma\u00dfe": 5433,
  "\u2581bureau": 5434,
  "\u2581verklaard": 5435,
  "\u2581zugelassen": 5436,
  "\u2581Vertrauen": 5437,
  "\u258179": 5438,
  "\u2581dergelijk": 5439,
  "\u2581Methoden": 5440,
  "\u2581pen": 5441,
  "\u2581Wi": 5442,
  "\u2581technisch": 5443,
  "\u2581Diskussion": 5444,
  "nach": 5445,
  "\u2581Arbeitsweise": 5446,
  "\u2581Si": 5447,
  "\u2581moesten": 5448,
  "\u2581erinnern": 5449,
  "\u2581Musik": 5450,
  "fort": 5451,
  "\u2581Brief": 5452,
  "\u2581eruit": 5453,
  "\u2581beroeps": 5454,
  "94": 5455,
  "\u2581ra": 5456,
  "TM": 5457,
  "rechten": 5458,
  "\u00fcb": 5459,
  "fahrt": 5460,
  "\u2581Worten": 5461,
  "\u2581gegaan": 5462,
  "\u2581folgen": 5463,
  "\u2581Mark": 5464,
  "\u2581Para": 5465,
  "BI": 5466,
  "\u2581opgericht": 5467,
  "\u2581Zentrum": 5468,
  "\u2581code": 5469,
  "\u2581gehalten": 5470,
  "\u2581Instrument": 5471,
  "\u2581Verordnungen": 5472,
  "\u2581wonen": 5473,
  "\u2581Besuch": 5474,
  "lidstaten": 5475,
  "\u2581blootstelling": 5476,
  "\u2581massa": 5477,
  "regeling": 5478,
  "\u2581Tonnen": 5479,
  "\u2581kamers": 5480,
  "\u2581Vorsicht": 5481,
  "\u2581Aufhebung": 5482,
  "\u2581overheden": 5483,
  "Arbeitslosigkeit": 5484,
  "\u2581Glas": 5485,
  "\u2581voraus": 5486,
  "ami": 5487,
  "\u2581normaal": 5488,
  ".1": 5489,
  "\u2581structurele": 5490,
  "\u2581l\u00e4ndlichen": 5491,
  "\u2581Tur": 5492,
  "\u2581sterven": 5493,
  "\u2581Ruhe": 5494,
  "\u2581begrijp": 5495,
  "\u2581Naties": 5496,
  "\u2581Artikeln": 5497,
  "\u25a0": 5498,
  "\u2581ii": 5499,
  "ssystem": 5500,
  "\u2581bericht": 5501,
  "\u2581zorgt": 5502,
  "\u2581CE": 5503,
  "meer": 5504,
  "\u2581kansen": 5505,
  "\u2581wollten": 5506,
  "\u2581funktioniert": 5507,
  "loze": 5508,
  "\u00ed": 5509,
  "idd": 5510,
  "MS": 5511,
  "\u2581Arbeitsmarkt": 5512,
  "gens": 5513,
  "zei": 5514,
  "uri": 5515,
  "\u2581angewandt": 5516,
  "ellen": 5517,
  "\u2581categorie\u00ebn": 5518,
  "\u2581endg": 5519,
  "\u2581geschehen": 5520,
  "\u2581context": 5521,
  "\u2581SA": 5522,
  "\u2581Stra\u00dfe": 5523,
  "rit": 5524,
  "\u2581verdrag": 5525,
  "\u2581keuken": 5526,
  "\u2581illegale": 5527,
  "Ja": 5528,
  "\u2581fruit": 5529,
  "\u2581beobachtet": 5530,
  "\u03b1": 5531,
  "\u2581totdat": 5532,
  "\u2581Stellungnahmen": 5533,
  "\u2581consumptie": 5534,
  "\u2581j\u00e4hrlich": 5535,
  "\u2581Jahrhundert": 5536,
  "gruppen": 5537,
  "\u2581Effizienz": 5538,
  "\u2581Gedanken": 5539,
  "alle": 5540,
  "\u2581daraus": 5541,
  "TA": 5542,
  "rung": 5543,
  "\u2581VII": 5544,
  "\u2581Erzeugung": 5545,
  "\u2581Star": 5546,
  "\u2581eigenschappen": 5547,
  "\u2581halte": 5548,
  "veld": 5549,
  "\u2581heilig": 5550,
  "nder": 5551,
  "ld": 5552,
  "\u2581reg": 5553,
  "\u2581beslissingen": 5554,
  "\u2581Sant": 5555,
  "\u00fch": 5556,
  "\u2581aangebracht": 5557,
  "\u2581bilden": 5558,
  "\u2581lezing": 5559,
  "\u2581Erzeuger": 5560,
  "\u2581nachhaltige": 5561,
  "richtlijn": 5562,
  "\u2581darstellen": 5563,
  "\u2581gesprochen": 5564,
  "Staaten": 5565,
  "\u2581loopt": 5566,
  "LA": 5567,
  "\u25811975": 5568,
  "\u2581partnerschap": 5569,
  "\u2581verkopen": 5570,
  "\u2581Vorlage": 5571,
  "AN": 5572,
  "\u2581regelmatig": 5573,
  "\u2581kommenden": 5574,
  "\u2581Einheit": 5575,
  "\u2581Kategorie": 5576,
  "onderzoek": 5577,
  "vier": 5578,
  "\u2581beziehen": 5579,
  "\u2581verwachten": 5580,
  "\u2581erleichtern": 5581,
  "\u2581haupts\u00e4chlich": 5582,
  "spiegel": 5583,
  "\u2581Umgebung": 5584,
  "\u2581Schon": 5585,
  "\u2581broeder": 5586,
  "\u2581positief": 5587,
  "\u2581Aufbau": 5588,
  "\u2581Bereitstellung": 5589,
  "\u2581huwelijk": 5590,
  "\u2581Au": 5591,
  "l\u00fc": 5592,
  "\u2581multi": 5593,
  "71": 5594,
  "fa\u00dft": 5595,
  "86": 5596,
  "\u2581Berichterstatt": 5597,
  "rol": 5598,
  "\u2581schepen": 5599,
  "\u2581aufgef\u00fchrt": 5600,
  "\u2581verlaten": 5601,
  "\u00f6s": 5602,
  "\u2581Wunsch": 5603,
  "\u2581\u00e4hnliche": 5604,
  "sal": 5605,
  "\u2581tabletten": 5606,
  "\u2581geboekt": 5607,
  "red": 5608,
  "\u2581vierde": 5609,
  "\u2581ausdr\u00fccklich": 5610,
  "einschlie\u00dflich": 5611,
  "\u2581Zi": 5612,
  "\u2581endlich": 5613,
  "fu": 5614,
  "\u2581volksgezondheid": 5615,
  "\u2581\u00f6ffnen": 5616,
  "\u2581miteinander": 5617,
  "\u2581tegelijkertijd": 5618,
  "\u2581perfect": 5619,
  "ischer": 5620,
  "53": 5621,
  "satz": 5622,
  "\u2581Schiff": 5623,
  "\u2581onderwerpen": 5624,
  "sinn": 5625,
  "alter": 5626,
  "vatte": 5627,
  "\u2581Schiffe": 5628,
  "q": 5629,
  "staten": 5630,
  "uf": 5631,
  "\u2581Protokolls": 5632,
  "\u2581overzicht": 5633,
  "\u2581verwendeten": 5634,
  "\u2581Ob": 5635,
  "pelijk": 5636,
  "\u2581verhouding": 5637,
  "das": 5638,
  "\u2581as": 5639,
  "\u2581geldende": 5640,
  "daten": 5641,
  "gruppe": 5642,
  "tar": 5643,
  "\u2581Neben": 5644,
  "\u2581hout": 5645,
  "\u2581machte": 5646,
  "sstrategie": 5647,
  "\u2581Buil": 5648,
  "\u2581L\u00f6sungen": 5649,
  "delen": 5650,
  "\u2581genannte": 5651,
  "\u2581n\u00f6tig": 5652,
  "\u2581missie": 5653,
  "\u2581Alt": 5654,
  "cke": 5655,
  "\u2581beschr\u00e4nkt": 5656,
  "\u2581AN": 5657,
  "gy": 5658,
  "scher": 5659,
  "\u2581zwem": 5660,
  "ction": 5661,
  "\u2581Ma\u00df": 5662,
  "\u2581slechte": 5663,
  "bouw": 5664,
  "gesellschaften": 5665,
  "\u2581Feld": 5666,
  "\u2581gecontroleerd": 5667,
  "\u2581kust": 5668,
  "\u2581Forschungs": 5669,
  "\u2581Tour": 5670,
  "\u2581Obst": 5671,
  "\u2581deelname": 5672,
  "lose": 5673,
  "politischen": 5674,
  "\u2581Autoriteit": 5675,
  "\u2581daartoe": 5676,
  "steun": 5677,
  "\u2581\u00fcberpr\u00fcft": 5678,
  "amin": 5679,
  "ins": 5680,
  "\u2581Gewinn": 5681,
  "\u25812-": 5682,
  "\u2581onafhankelijke": 5683,
  "\u2581Verwaltungs": 5684,
  "\u2581ster": 5685,
  "\u2581verzoekt": 5686,
  "\u2581Gew\u00e4hrung": 5687,
  "\u2581anzuwenden": 5688,
  "\u2581Details": 5689,
  "\u2581aanbod": 5690,
  "\u2581toename": 5691,
  "\u2581cijfers": 5692,
  "\u2581contract": 5693,
  "\u2581strand": 5694,
  "\u2581l\u00e4\u00dft": 5695,
  "bri": 5696,
  "maschine": 5697,
  "put": 5698,
  "inter": 5699,
  "\u2581Zahlen": 5700,
  "\u2581benutzt": 5701,
  "\u2581verkrijgen": 5702,
  "\u2581Willen": 5703,
  "\u2581Bezeichnung": 5704,
  "\u2581verboden": 5705,
  "\u2581Middellandse": 5706,
  "waarde": 5707,
  "\u2581tafel": 5708,
  "\u2581\u03bc": 5709,
  "\u2581Schweden": 5710,
  "87": 5711,
  "\u2581alcohol": 5712,
  "\u2581Fisch": 5713,
  "\u2581Ltd": 5714,
  "din": 5715,
  "\u2581Angabe": 5716,
  "\u2581Fractie": 5717,
  "\u2581Geburt": 5718,
  "\u2581Einleitung": 5719,
  "laten": 5720,
  "orme": 5721,
  "\u2581Material": 5722,
  "ox": 5723,
  "\u2581Einnahmen": 5724,
  "\u2581Trans": 5725,
  "\u2581Teilnahme": 5726,
  "treu": 5727,
  "\u2581overdracht": 5728,
  "cha": 5729,
  "\u2581wild": 5730,
  "\u2581staatlichen": 5731,
  "67": 5732,
  "\u2581Umst\u00e4nden": 5733,
  "rett": 5734,
  "\u2581opening": 5735,
  "\u2581schlie\u00dfen": 5736,
  "erende": 5737,
  "\u2581Schritte": 5738,
  "\u2581Kommunikation": 5739,
  "\u2581Getreide": 5740,
  "\u2581or": 5741,
  "\u2581Bord": 5742,
  "58": 5743,
  "ici": 5744,
  "\u2581gevestigd": 5745,
  "\u2581Formen": 5746,
  "\u2581wensen": 5747,
  "\u2581guter": 5748,
  "1)": 5749,
  "\u2581\u00dcbereinkommens": 5750,
  "\u2581overheids": 5751,
  "\u2581Krise": 5752,
  "falls": 5753,
  "nten": 5754,
  "\u2581sluiting": 5755,
  "\u2581anerkannt": 5756,
  "\u2581Vergangenheit": 5757,
  "\u2581fort": 5758,
  "ieve": 5759,
  "\u2581gepubliceerd": 5760,
  "\u2581Kredit": 5761,
  "\u2581Verbreitung": 5762,
  "\u2581Kauf": 5763,
  "gebieden": 5764,
  "\u2581Auftrag": 5765,
  "\u2581zulke": 5766,
  "\u258157": 5767,
  "..\"": 5768,
  ".12.": 5769,
  "\u2581conclusie": 5770,
  "KOM": 5771,
  "\u2581inschrijving": 5772,
  "\u2581My": 5773,
  "\u2581afwijking": 5774,
  "\u2581Hoffnung": 5775,
  "\u2581beoordelen": 5776,
  "\u2581Besondere": 5777,
  "\u2581nadruk": 5778,
  "\u2581ber": 5779,
  "\u2581verdienen": 5780,
  "\u2581beschrijving": 5781,
  "fall": 5782,
  "\u2581India": 5783,
  "\u2581verwezenlijking": 5784,
  "ata": 5785,
  "\u2581gr": 5786,
  "Sp": 5787,
  "kal": 5788,
  "\u2581inachtneming": 5789,
  "\u2581wirksam": 5790,
  "\u2581m\u00f6glichst": 5791,
  "\u2581umgesetzt": 5792,
  "\u2581schl\u00e4gt": 5793,
  "wach": 5794,
  "EF": 5795,
  "grad": 5796,
  "2004": 5797,
  "\u2581eenmaal": 5798,
  "\u2581namen": 5799,
  "\u258174": 5800,
  "\u2581Sinds": 5801,
  "rang": 5802,
  "gli": 5803,
  "\u2581kwaad": 5804,
  "\u2581Antr\u00e4ge": 5805,
  "\u2581lieber": 5806,
  "ori": 5807,
  "\u2581franz\u00f6sischen": 5808,
  "\u2581f\u00fchrte": 5809,
  "\u258199": 5810,
  "\u2581trotz": 5811,
  "\u2581band": 5812,
  "\u2581ogenblik": 5813,
  "\u2581aangeboden": 5814,
  "\u2581geopend": 5815,
  "\u25811.3.1": 5816,
  "\u2581sto": 5817,
  "\u2581Hintergrund": 5818,
  "pri": 5819,
  "\u2581goud": 5820,
  "denken": 5821,
  "\u2581Versuch": 5822,
  "\u2581koop": 5823,
  "\u2581Agen": 5824,
  "\u2581Dollar": 5825,
  "\u2581aanvragen": 5826,
  "\u2581Min": 5827,
  "\u2581Gerecht": 5828,
  "\u2581Jon": 5829,
  "ult": 5830,
  "\u2581Rekenkamer": 5831,
  "bellen": 5832,
  "informatie": 5833,
  "\u2581vergoeding": 5834,
  "stelsel": 5835,
  "ony": 5836,
  "\u258198": 5837,
  "anten": 5838,
  "ial": 5839,
  "\u2581zust\u00e4ndig": 5840,
  "fahren": 5841,
  "-4": 5842,
  "fragen": 5843,
  "ind": 5844,
  "\u2581gedachten": 5845,
  "\u2581erstellt": 5846,
  "\u2581ie": 5847,
  "\u2581vorderingen": 5848,
  "\u2581zet": 5849,
  "organisatie": 5850,
  "r\u00f6": 5851,
  "\u2581spezifische": 5852,
  "GR": 5853,
  "\u2581(3": 5854,
  "\u2581Prijs": 5855,
  "\u2581Festsetzung": 5856,
  "\u2581Roma": 5857,
  "\u2581St\u00fcck": 5858,
  "\u2581Partei": 5859,
  "\u2581hervormingen": 5860,
  "fonds": 5861,
  "\u25811000": 5862,
  "\u2581Laufe": 5863,
  "\u2581prestaties": 5864,
  "leid": 5865,
  "\u2581Zou": 5866,
  "systeme": 5867,
  "\u258158": 5868,
  "\u258161": 5869,
  "\u2581Advies": 5870,
  "\u2581militaire": 5871,
  "\u2581praktisch": 5872,
  "ME": 5873,
  "\u2581micro": 5874,
  "\u2581Zelfs": 5875,
  "\u2581meestal": 5876,
  "\u2581indienen": 5877,
  "\u2581erw\u00e4hnt": 5878,
  "\u2581verschaffen": 5879,
  "\u2581aanwezigheid": 5880,
  "\u2581bevinden": 5881,
  "63": 5882,
  "\u2581fr\u00fcher": 5883,
  "74": 5884,
  "\u2581Hart": 5885,
  "\u2581feiten": 5886,
  "\u2581gerichtet": 5887,
  "HEER": 5888,
  "\u2581erheblich": 5889,
  "\u258110,": 5890,
  "\u2581redden": 5891,
  "\u258176": 5892,
  "\u2581Stunde": 5893,
  "\u00e4l": 5894,
  "\u2581voren": 5895,
  "\u2581National": 5896,
  "\u2581genutzt": 5897,
  "\u2581Regulierung": 5898,
  "\u2581belanghebbenden": 5899,
  "\u2581FR": 5900,
  "\u2581folgender": 5901,
  "\u2581Konzept": 5902,
  "\u2581benadering": 5903,
  "TEN": 5904,
  "\u2581Mus": 5905,
  "\u2581planten": 5906,
  "\u2581opnemen": 5907,
  "\u2581scheppen": 5908,
  "\u2581Kohle": 5909,
  "\u2581spreekt": 5910,
  "ua": 5911,
  "\u2581Angel": 5912,
  "\u2581no": 5913,
  "\u2581falsch": 5914,
  "\u2581exploitatie": 5915,
  "\u2581doeleinden": 5916,
  "\u2581ke": 5917,
  "\u2581twaalf": 5918,
  "isse": 5919,
  "\u2581Griekse": 5920,
  "zig": 5921,
  "\u2581fabrikant": 5922,
  "\u2581K\u00fcche": 5923,
  "\u258103": 5924,
  "raak": 5925,
  ".6.": 5926,
  "stu": 5927,
  "\u258168": 5928,
  "LE": 5929,
  "vorschriften": 5930,
  "0000": 5931,
  "bedrijven": 5932,
  "\u2581geregeld": 5933,
  "\u2581prioriteit": 5934,
  "beoordeling": 5935,
  "\u2581Deel": 5936,
  "\u25811978": 5937,
  "\u2581wann": 5938,
  "preis": 5939,
  "EM": 5940,
  "sebene": 5941,
  "\u2581nennen": 5942,
  "\u2581h\u00e4ngt": 5943,
  "\u2581Strukturfonds": 5944,
  "\u2581Drei": 5945,
  "\u2581def": 5946,
  "\u2581Schengen": 5947,
  "ons": 5948,
  "\u2581tijdelijke": 5949,
  "\u2581tuin": 5950,
  "\u2581IT": 5951,
  "\u2581globale": 5952,
  "\u2581koffie": 5953,
  "\u2581Mikro": 5954,
  "\u2581verkeerde": 5955,
  "\u2581Volks": 5956,
  "\u2581Adam": 5957,
  "lui": 5958,
  "\u2581wellicht": 5959,
  "\u2581niemals": 5960,
  "\u2581regionaal": 5961,
  "\u2581Dis": 5962,
  "\u2581onmogelijk": 5963,
  "\u25813-": 5964,
  "\u2581go": 5965,
  "\u2581verhoging": 5966,
  "\u2581Agenda": 5967,
  "\u2581lebt": 5968,
  "\u2581private": 5969,
  "\u258163": 5970,
  "\u2581kleur": 5971,
  "\u2581offensichtlich": 5972,
  "\u258169": 5973,
  "\u2581kantoor": 5974,
  "lijst": 5975,
  "wet": 5976,
  "\u2581Soll": 5977,
  "\u2581Uni": 5978,
  "\u2581Sol": 5979,
  "\u2581Benutzer": 5980,
  "\u2581Bel": 5981,
  "\u2581draagt": 5982,
  "cre": 5983,
  "\u2581Insel": 5984,
  "\u2581lever": 5985,
  "\u2581\u00fcbernehmen": 5986,
  "\u2581bezieht": 5987,
  "\u2581heid": 5988,
  "\u2581Beschl\u00fcsse": 5989,
  "\u2581Str": 5990,
  "\u2581Umweltschutz": 5991,
  "\u2581Dow": 5992,
  "\u2581ervaringen": 5993,
  "\u2581festzulegen": 5994,
  "\u2581get\u00f6tet": 5995,
  "\u2581verspreiding": 5996,
  "economische": 5997,
  "\u2581bevindt": 5998,
  "Der": 5999,
  "\u2581andererseits": 6000,
  "\u2581rij": 6001,
  "\u2581Fachgruppe": 6002,
  "\u2581hingewiesen": 6003,
  "\u2581einzigen": 6004,
  "\u2581Estland": 6005,
  "\u2581ergibt": 6006,
  "\u2581verhoogd": 6007,
  "\u2581alte": 6008,
  "lijn": 6009,
  "\u258178": 6010,
  "beroepsopleiding": 6011,
  "\u2581pati\u00ebnt": 6012,
  "\u2581vullen": 6013,
  "shop": 6014,
  "\u2581transparantie": 6015,
  "\u2581dames": 6016,
  "heilig": 6017,
  "spannen": 6018,
  "suche": 6019,
  "\u2581rustig": 6020,
  "\u2581angemessen": 6021,
  "\u2581drau\u00dfen": 6022,
  "datum": 6023,
  "rate": 6024,
  "\u2581brand": 6025,
  "\u2581Tisch": 6026,
  "\u2581reicht": 6027,
  "ros": 6028,
  "\u2581Ecu": 6029,
  "digen": 6030,
  "\u2581bewijzen": 6031,
  "sport": 6032,
  "\u2581eilanden": 6033,
  "ppen": 6034,
  "\u2581Mobilit\u00e4t": 6035,
  "\u258167": 6036,
  "\u2581dier": 6037,
  "ijk": 6038,
  "\u2581vergaderingen": 6039,
  "\u2581Sh": 6040,
  "\u2581voet": 6041,
  "\u2581ben\u00f6tigen": 6042,
  "\u2581Goedkeuring": 6043,
  "ninkrijk": 6044,
  "ender": 6045,
  "\u2581umfassen": 6046,
  "\u2581weltweit": 6047,
  "\u2581handeln": 6048,
  "\u2581veranderd": 6049,
  "\u2581Iedereen": 6050,
  "\u2581Gesicht": 6051,
  "\u2581verbundenen": 6052,
  "\u2581bedrijfsleven": 6053,
  "\u2581meteen": 6054,
  "\u2581Betr\u00e4ge": 6055,
  "\u2581traditionele": 6056,
  "santrag": 6057,
  "\u2581bereitgestellt": 6058,
  "\u2581Stabilit\u00e4t": 6059,
  "\u2581spoor": 6060,
  "\u00ef": 6061,
  "\u2581transacties": 6062,
  "oli": 6063,
  "san": 6064,
  "\u2581Bef\u00f6rderung": 6065,
  "ET": 6066,
  "haft": 6067,
  "\u2581essenti\u00eble": 6068,
  "\u2581welcher": 6069,
  "\u2581Mitarbeiter": 6070,
  "\u2581tijdstip": 6071,
  "\u2581Frei": 6072,
  "\u25812)": 6073,
  "\u2581raadplegen": 6074,
  "\u2581Wortlaut": 6075,
  "\u2581\u00fcberall": 6076,
  "hy": 6077,
  "\u2581inlichtingen": 6078,
  "\u2581vergroten": 6079,
  "\u2581RAAD": 6080,
  "\u2581entgegen": 6081,
  "tive": 6082,
  "eten": 6083,
  "\u2581vorher": 6084,
  "\u2581bo": 6085,
  "sbepalingen": 6086,
  "\u2581registratie": 6087,
  "\u2581verzekerings": 6088,
  "\u2581erhebliche": 6089,
  "\u2581aktiv": 6090,
  "\u2581vorhanden": 6091,
  "\u2581Contact": 6092,
  "gre": 6093,
  "\u2581AL": 6094,
  "grat": 6095,
  "zicht": 6096,
  "\u2581H\u00e4lfte": 6097,
  "\u2581pagina": 6098,
  "\u2581Iran": 6099,
  "way": 6100,
  "\u2581stijging": 6101,
  "\u2581publieke": 6102,
  "\u2581technologie\u00ebn": 6103,
  "\u2581Schweiz": 6104,
  "\u2581bilaterale": 6105,
  "\u2581orgaan": 6106,
  "\u2581tat": 6107,
  ".3.": 6108,
  "\u2581aanvaard": 6109,
  "\u2581dahin": 6110,
  "jaar": 6111,
  "\u03c4": 6112,
  "wasser": 6113,
  "bre": 6114,
  "\u2581Sorgen": 6115,
  "beheer": 6116,
  "nde": 6117,
  "Programm": 6118,
  "\u2581Nieuw": 6119,
  "\u2581dien": 6120,
  "\u2581AG": 6121,
  "\u2581verbod": 6122,
  "\u2581team": 6123,
  "\u2581bleek": 6124,
  "lit": 6125,
  "\u2581Durchschnitt": 6126,
  "kamers": 6127,
  "\u2581Sc": 6128,
  "feld": 6129,
  "\u2581Arm": 6130,
  "\u2581Fahrzeuge": 6131,
  "slag": 6132,
  "dal": 6133,
  "\u2581Terug": 6134,
  "\u2581Hu": 6135,
  "dienste": 6136,
  "\u2581BIP": 6137,
  "eln": 6138,
  "\u2581siehe": 6139,
  "bro": 6140,
  "\u2581soortgelijke": 6141,
  "tail": 6142,
  "still": 6143,
  "\u2581feite": 6144,
  "\u2581stroom": 6145,
  "\u2581opzicht": 6146,
  "\u2581rente": 6147,
  "ementen": 6148,
  "oei": 6149,
  "iden": 6150,
  "ira": 6151,
  "\u2581Pr": 6152,
  "non": 6153,
  "\u2581hierbij": 6154,
  "\u2581pak": 6155,
  "\u2581stellte": 6156,
  "\u2581heden": 6157,
  "ohne": 6158,
  "\u2581Eisen": 6159,
  "\u2581Wettbewerbs": 6160,
  "mei": 6161,
  "3%": 6162,
  "ool": 6163,
  "\u2581ergens": 6164,
  "2003": 6165,
  "\u2581Band": 6166,
  "\u2581eeuwig": 6167,
  "\u2581verpakking": 6168,
  "\u2581Religion": 6169,
  "\u2581voelen": 6170,
  "\u25810,5": 6171,
  "\u2581Satz": 6172,
  "verst\u00e4ndlich": 6173,
  "\u2581deelnemen": 6174,
  "500": 6175,
  "\u2581Spaanse": 6176,
  "\u2581lijken": 6177,
  "ds": 6178,
  "ratie": 6179,
  "kijk": 6180,
  "\u2581Haltung": 6181,
  "lach": 6182,
  "\u2581levens": 6183,
  "/2001": 6184,
  "92": 6185,
  "\u2581status": 6186,
  "\u2581Einigung": 6187,
  "\u2581Betracht": 6188,
  "tool": 6189,
  "\u2581weist": 6190,
  "\u2581certificaat": 6191,
  "\u2581Seele": 6192,
  "\u2581s\u00e4mtliche": 6193,
  "\u2581perfekt": 6194,
  "\u2581reglement": 6195,
  "\u2581d\u00fcrfte": 6196,
  "\u2581darunter": 6197,
  "\u2581bio": 6198,
  "\u2581vollst\u00e4ndige": 6199,
  "mals": 6200,
  "PS": 6201,
  "anlagen": 6202,
  "\u2581K\u00f6nnen": 6203,
  "\u2581Status": 6204,
  "bericht": 6205,
  "\u2581W\u00fcrde": 6206,
  "\u2581k\u00fcnftigen": 6207,
  "\u2581Max": 6208,
  "\u2581durchzuf\u00fchren": 6209,
  "72": 6210,
  "\u2581Aufgrund": 6211,
  "ella": 6212,
  "\u2581winst": 6213,
  "\u2581Reaktion": 6214,
  "\u2581inkomsten": 6215,
  "\u2581zware": 6216,
  "\u2581Ton": 6217,
  "stan": 6218,
  "erzeugnissen": 6219,
  "7.": 6220,
  "\u2581kunst": 6221,
  "\u2581schoon": 6222,
  "\u2581wezen": 6223,
  "\u2581eerlijk": 6224,
  "\u2581functioneren": 6225,
  "\u2581gelegt": 6226,
  "ise": 6227,
  "\u2581kenne": 6228,
  "leden": 6229,
  "rau": 6230,
  "\u2581\u00fcbermitteln": 6231,
  "\u2581Insgesamt": 6232,
  "\u2581Reg": 6233,
  "\u2581bitten": 6234,
  "\u2581ser": 6235,
  "\u2581intrekking": 6236,
  "\u2581besteed": 6237,
  "\u2581armoede": 6238,
  "\u258104": 6239,
  "\u2581Dimension": 6240,
  "\u2581jaarlijks": 6241,
  "pl": 6242,
  "\u2581Dazu": 6243,
  "\u2581London": 6244,
  "\u2581definitief": 6245,
  "\u2581manche": 6246,
  "\u2581doordat": 6247,
  "\u2581Vier": 6248,
  "zeug": 6249,
  "\u2581gestern": 6250,
  "\u2581(0)": 6251,
  "\u2581voorgeschreven": 6252,
  "\u2581verlieren": 6253,
  "\u2581(7)": 6254,
  "\u2581bevoegd": 6255,
  "\u2581j\u00fcngste": 6256,
  "\u2581muziek": 6257,
  "pot": 6258,
  "\u2581Can": 6259,
  "TER": 6260,
  "\u2581absoluut": 6261,
  "\u2581partner": 6262,
  "\u2581gedeeltelijk": 6263,
  "kort": 6264,
  "\u2581richt": 6265,
  "dis": 6266,
  "\u2581Pf": 6267,
  "\u2581erfordert": 6268,
  "\u2581Armut": 6269,
  "\u2581Zeiten": 6270,
  "/2004": 6271,
  "\u2581ontbreken": 6272,
  "gewicht": 6273,
  "Ein": 6274,
  "\u2581klant": 6275,
  "\u2581menschlichen": 6276,
  "\u2581Bedarf": 6277,
  "\u2581Bos": 6278,
  "\u2581pr": 6279,
  "\u2581vooraf": 6280,
  "\u2581manchmal": 6281,
  "\u2581Gegen": 6282,
  "bank": 6283,
  "\u2581jong": 6284,
  "\u2581Martin": 6285,
  "\u2581Pr\u00fcf": 6286,
  "\u2581treten": 6287,
  "\u2581dis": 6288,
  "\u2581RE": 6289,
  "sprakelijkheid": 6290,
  "\u2581daadwerkelijk": 6291,
  "\u2581Dar": 6292,
  "\u2581Mei": 6293,
  "aardig": 6294,
  "AM": 6295,
  "mmen": 6296,
  "\u2581positive": 6297,
  "\u2581sti": 6298,
  "\u2581vermijden": 6299,
  "\u2581Toe": 6300,
  "\u2581dimensie": 6301,
  "\u2581achten": 6302,
  "\u2581l\u00f6sen": 6303,
  "\u25811977": 6304,
  "ue": 6305,
  "\u2581gevoerd": 6306,
  "\u2581Abfall": 6307,
  "\u2581Stimme": 6308,
  "az": 6309,
  "wu\u00dft": 6310,
  "\u2581Bon": 6311,
  "\u2581Verhalten": 6312,
  "\u2581gebleken": 6313,
  "\u2581Ablauf": 6314,
  "\u2581Sand": 6315,
  "\u2581verdeling": 6316,
  "baren": 6317,
  "elen": 6318,
  "\u2581Vol": 6319,
  "9.": 6320,
  "t\u00fcr": 6321,
  "wegen": 6322,
  "1%": 6323,
  "middelen": 6324,
  "arbeit": 6325,
  "IA": 6326,
  "\u2581Prozent": 6327,
  "\u2581getrouw": 6328,
  "\u2581Alkohol": 6329,
  "\u2581M\u00e4nnern": 6330,
  "\u2581S\u00fcnde": 6331,
  "\u2581Wann": 6332,
  "\u2581Trotz": 6333,
  ".4.": 6334,
  "sti": 6335,
  "1999": 6336,
  "52": 6337,
  "\u2581nat\u00fcrliche": 6338,
  "\u2581uitdagingen": 6339,
  "\u2581Modell": 6340,
  "stelling": 6341,
  "\u2581papier": 6342,
  "\u2581Schrift": 6343,
  "\u2581uitgebracht": 6344,
  "\u2581werkelijke": 6345,
  "\u2581rijden": 6346,
  "\u2581kamen": 6347,
  "\u2581gestelde": 6348,
  "\u2581Sonstige": 6349,
  "macht": 6350,
  "overeenkomsten": 6351,
  "nahme": 6352,
  "\u2581moeite": 6353,
  "\u2581\u00dcbersetzung": 6354,
  "ida": 6355,
  "\u2581VIII": 6356,
  "\u2581plus": 6357,
  "\u2581Regio": 6358,
  "\u2581Hoheitsgebiet": 6359,
  "\u2581functies": 6360,
  "\u2581wens": 6361,
  "\u2581Agrar": 6362,
  "\u2581Injektions": 6363,
  "\u2581bedoeling": 6364,
  "\u2581versterkt": 6365,
  "\u2581wind": 6366,
  "aars": 6367,
  "procedure": 6368,
  "\u2581m\u00f6glichen": 6369,
  "\u2581Anstieg": 6370,
  "leven": 6371,
  "\u2581voorgelegd": 6372,
  "prijzen": 6373,
  "\u2581Mel": 6374,
  "\u2581kop": 6375,
  "\u2581schwierig": 6376,
  "frage": 6377,
  "zahl": 6378,
  "\u2581ni": 6379,
  "\u2581Muster": 6380,
  "kan": 6381,
  "\u2581verfolgt": 6382,
  "\u2581Konsultation": 6383,
  "ade": 6384,
  "\u2581doeltreffende": 6385,
  "\u2581Fortschritt": 6386,
  "\u2581Diskriminierung": 6387,
  "\u2581spoedig": 6388,
  "elt": 6389,
  "\u2581F\u00e4higkeit": 6390,
  "LI": 6391,
  "sicht": 6392,
  "\u2581waargenomen": 6393,
  "tzt": 6394,
  "\u2581Ber": 6395,
  "\u2581hiervoor": 6396,
  "\u2581schuldig": 6397,
  "\u2581Niveau": 6398,
  "eel": 6399,
  "\u2581betont": 6400,
  "sprogramm": 6401,
  "\u2581houding": 6402,
  "material": 6403,
  "\u2581Gerichts": 6404,
  "\u2581Soms": 6405,
  "\u2581Merkmale": 6406,
  "\u2581relevant": 6407,
  "sbeginsel": 6408,
  "car": 6409,
  "\u2581drinken": 6410,
  "\u25811.4.": 6411,
  "\u2581Unterschied": 6412,
  "\u2581Freude": 6413,
  "funktion": 6414,
  "\u00e4n": 6415,
  "\u2581wapen": 6416,
  "Ab": 6417,
  "\u2581Beweis": 6418,
  "enz": 6419,
  "\u2581hoorde": 6420,
  "\u2581hoeveel": 6421,
  "\u2581Antworten": 6422,
  "igt": 6423,
  "\u2581toegewezen": 6424,
  "\u258166": 6425,
  "\u2581overeengekomen": 6426,
  "\u2581christe": 6427,
  "\u2581vuur": 6428,
  "stag": 6429,
  "\u2581h\u00f6chstens": 6430,
  "\u2581besch": 6431,
  "sol": 6432,
  "\u2581fa": 6433,
  "\u2581relatie": 6434,
  "\u25811976": 6435,
  "\u2581wapens": 6436,
  "sproces": 6437,
  "\u2581middelgrote": 6438,
  "ieten": 6439,
  "zak": 6440,
  "\u2581geslacht": 6441,
  "\u2581Kosovo": 6442,
  "sse": 6443,
  "\u2581Aus\u00fcbung": 6444,
  "\u2581overtuigd": 6445,
  "wen": 6446,
  "eld": 6447,
  "\u2581Bin": 6448,
  "\u2581Stimmen": 6449,
  "lag": 6450,
  "\u2581winnen": 6451,
  "93": 6452,
  "maximale": 6453,
  "\u2581behouden": 6454,
  "set": 6455,
  "\u2581ER": 6456,
  "\u2581ingenomen": 6457,
  "\u2581fijn": 6458,
  "uber": 6459,
  "\u2581Beseitigung": 6460,
  "Wa": 6461,
  "antie": 6462,
  "\u2581directeur": 6463,
  "\u2581bouwen": 6464,
  "\u2581eng": 6465,
  "\u2581reizen": 6466,
  "\u2581starke": 6467,
  "\u2581Forderungen": 6468,
  "\u00f6ch": 6469,
  "\u2581gewinnen": 6470,
  "\u2581Apart": 6471,
  "\u2581wesentlich": 6472,
  "\u2581Russische": 6473,
  "gal": 6474,
  "\u2581mobiliteit": 6475,
  "\u2581Arbeitgeber": 6476,
  "0,": 6477,
  "\u2581Teilnehmer": 6478,
  "\u2581leiding": 6479,
  "\u2581Irak": 6480,
  "\u2581ijzer": 6481,
  ".5.": 6482,
  "\u2581nat\u00fcrlichen": 6483,
  "cia": 6484,
  "\u2581Kurz": 6485,
  "\u2581K\u00f6nigreichs": 6486,
  "\u2581verwijderen": 6487,
  "2007": 6488,
  "\u2581General": 6489,
  "\u2581register": 6490,
  "EC": 6491,
  "3)": 6492,
  "\u2581gr\u00f6\u00dferen": 6493,
  "\u2581stets": 6494,
  "Europese": 6495,
  "\u2581melden": 6496,
  "\u2581Papa": 6497,
  "\u2581Organe": 6498,
  "\u2581eigendom": 6499,
  "\u2581zul\u00e4ssig": 6500,
  "\").": 6501,
  "ddy": 6502,
  "vergemakkelijken": 6503,
  "sein": 6504,
  "\u2581hoffen": 6505,
  "\u2581gew\u00e4hlt": 6506,
  "punkt": 6507,
  "\u2581junge": 6508,
  "Inverkehrbringen": 6509,
  "\u2581bepaalt": 6510,
  "\u2581discriminatie": 6511,
  "\u2581allgemein": 6512,
  "\u2581Garten": 6513,
  "igheid": 6514,
  "\u2581merk": 6515,
  "\u2581Angebote": 6516,
  "\u2581stimmen": 6517,
  "\u2581Fach": 6518,
  "\u2581ambtenaren": 6519,
  "RI": 6520,
  "\u2581Qua": 6521,
  "\u2581Meeres": 6522,
  "fallen": 6523,
  "\u2581accommodatie": 6524,
  "\u2581aufzunehmen": 6525,
  "\u2581beoordeeld": 6526,
  "\u2581schen": 6527,
  "ile": 6528,
  "\u2581besproken": 6529,
  "bil": 6530,
  "\u2581paragraaf": 6531,
  "programm": 6532,
  "\u2581Angelegenheit": 6533,
  "eth": 6534,
  "\u2581Unterkunft": 6535,
  "\u2581toepassen": 6536,
  "\u2581Red": 6537,
  "lock": 6538,
  "\u2581M\u00e4rkte": 6539,
  "\u2581absolut": 6540,
  "\u2581Norm": 6541,
  "\u2581Ol": 6542,
  "\u2581auftreten": 6543,
  "\u2581GmbH": 6544,
  "\u2581vlucht": 6545,
  "\u2581achtergrond": 6546,
  "\u2581ingetrokken": 6547,
  "\u2581betroffen": 6548,
  "\u2581verkiezingen": 6549,
  "\u2581verwezen": 6550,
  "\u2581Wegen": 6551,
  "\u2581Canar": 6552,
  "\u2581Fu\u00df": 6553,
  "\u2581Tal": 6554,
  "klinischen": 6555,
  "\u2581Mehrwertsteuer": 6556,
  "sor": 6557,
  "bor": 6558,
  "\u2581valuta": 6559,
  "\u2581formulier": 6560,
  "\u2581schaal": 6561,
  "UN": 6562,
  "\u2581institutionele": 6563,
  "\u2581ge\u00efntegreerde": 6564,
  "name": 6565,
  "ther": 6566,
  "\u2581Vorschlags": 6567,
  "\u258125%": 6568,
  "christ": 6569,
  "PSE": 6570,
  "\u2581half": 6571,
  "\u2581verzekeren": 6572,
  "\u2581VON": 6573,
  "\u2581110": 6574,
  "\u2581transport": 6575,
  "\u2581entstehen": 6576,
  "\u2581Anders": 6577,
  "\u2581wan": 6578,
  "\u2581Krankheit": 6579,
  "\u2581Tieren": 6580,
  "productie": 6581,
  "kra": 6582,
  "lect": 6583,
  "mel": 6584,
  "\u2581h\u00f6here": 6585,
  "\u2581einerseits": 6586,
  "ola": 6587,
  "tlich": 6588,
  "max": 6589,
  "\u2581verkocht": 6590,
  "\u2581berechnet": 6591,
  "\u2581Gemein": 6592,
  "woord": 6593,
  "AB": 6594,
  "l\u00f6": 6595,
  "rom": 6596,
  "via": 6597,
  "\u00f6h": 6598,
  "\u2581daardoor": 6599,
  "dan": 6600,
  "\u2581verst\u00e4rkt": 6601,
  "DI": 6602,
  "\u2581tarieven": 6603,
  "finden": 6604,
  "\u2581erinnert": 6605,
  "\u2581Formular": 6606,
  "\u2581lie\u00df": 6607,
  "\u2581NL": 6608,
  "0%": 6609,
  "\u2581Ereignisse": 6610,
  "\u2581onvoldoende": 6611,
  "\u258130%": 6612,
  "\u2581Folgenden": 6613,
  "\u2581vraagstukken": 6614,
  "sabkommen": 6615,
  "\u2581Nachfrage": 6616,
  "IM": 6617,
  "\u2581speelt": 6618,
  "\u2581gering": 6619,
  "\u2581H\u00e4nde": 6620,
  "\u2581tr": 6621,
  "\u2581City": 6622,
  "\u2581akzeptiert": 6623,
  "\u2581Einbeziehung": 6624,
  "\u2581grondslag": 6625,
  "\u2581ontvangst": 6626,
  "Umstrukturierung": 6627,
  "\u2581menselijk": 6628,
  "\u2581Reaktionen": 6629,
  "\u2581Out": 6630,
  "FA": 6631,
  "\u2581kost": 6632,
  "\u2581Therapie": 6633,
  "\u2581Auslegung": 6634,
  "\u2581Mu": 6635,
  "\u2581boord": 6636,
  "\u2581Ohne": 6637,
  "\u2581verbeterd": 6638,
  "\u2581einheitlichen": 6639,
  "\u2581geschreven": 6640,
  "\u2581geplaatst": 6641,
  "var": 6642,
  "\u2581beachten": 6643,
  "lern": 6644,
  "\u2581Sachen": 6645,
  "\u2581Binnenmarktes": 6646,
  "\u2581Gew\u00e4hrleistung": 6647,
  "\u2581Ontwikkeling": 6648,
  "\u2581erkl\u00e4rte": 6649,
  "geven": 6650,
  "\u2581Mitte": 6651,
  "\u2581Besucher": 6652,
  "\u2581Agentschap": 6653,
  "\u2581Ruf": 6654,
  "glas": 6655,
  "\u2581tarief": 6656,
  "\u2581respect": 6657,
  "\u2581doeltreffend": 6658,
  "cus": 6659,
  "gin": 6660,
  "\u00e4ssig": 6661,
  "\u2581Ausarbeitung": 6662,
  "studie": 6663,
  "ssysteem": 6664,
  "\u2581geestelijke": 6665,
  "\u2581anwenden": 6666,
  "\u2581gebouw": 6667,
  "\u2581studenten": 6668,
  "\u2581Vorsitz": 6669,
  "tum": 6670,
  "zij": 6671,
  "\u2581rechtstreekse": 6672,
  "\u2581Verteilung": 6673,
  "\u2581h\u00f6her": 6674,
  "\u2581langsam": 6675,
  "\u2581Roemeni\u00eb": 6676,
  "\u2581gezamenlijk": 6677,
  "oon": 6678,
  "\u2581banden": 6679,
  "\u2581dienstverlening": 6680,
  "\u2581besseren": 6681,
  "\u2581George": 6682,
  "\u2581Treffen": 6683,
  "\u2581waaruit": 6684,
  "\u2581Sommer": 6685,
  "Pa": 6686,
  "Wirtschaftszweig": 6687,
  "weit": 6688,
  "anti": 6689,
  "TV": 6690,
  "\u2581locatie": 6691,
  "bildung": 6692,
  "\u2581enig": 6693,
  "\u2581nuttig": 6694,
  "auer": 6695,
  "\u2581Allgemeine": 6696,
  "\u2581einiger": 6697,
  "\u2581selectie": 6698,
  "ward": 6699,
  "\u2581helpt": 6700,
  "\u2581Ermittlung": 6701,
  "leb": 6702,
  "\u2581Option": 6703,
  "\u2581Ger": 6704,
  "\u2581bal": 6705,
  "\u2581Dienstleistung": 6706,
  "\u2581Finland": 6707,
  "\u2581export": 6708,
  "9,": 6709,
  "\u2581Marokko": 6710,
  "\u2581groenten": 6711,
  "\u2581vorzulegen": 6712,
  "wann": 6713,
  "ram": 6714,
  "stell": 6715,
  "\u258183": 6716,
  "\u2581bekijken": 6717,
  "\u2581Problemen": 6718,
  "\u2581Hotels": 6719,
  "\u2581Mission": 6720,
  "lings": 6721,
  "\u2581super": 6722,
  "\u2581hield": 6723,
  "\u2581Kra": 6724,
  "\u2581Angleichung": 6725,
  "t\u00e4tigkeit": 6726,
  "\u2581Luftfahrt": 6727,
  "\u2581Sachverst\u00e4ndige": 6728,
  "\u2581raken": 6729,
  "\u2581Zusatz": 6730,
  "\u2581handelsverkeer": 6731,
  "ji": 6732,
  "\u2581Maastricht": 6733,
  "\u2581Bestandteil": 6734,
  "zaam": 6735,
  "\u2581Solidarit\u00e4t": 6736,
  "\u2581word": 6737,
  "\u2581Elemente": 6738,
  "leistung": 6739,
  "\u2581gewichtspercent": 6740,
  "\u2581\u00dcbernahme": 6741,
  "\u2581GN": 6742,
  "ondernemingen": 6743,
  "\u2581huren": 6744,
  "-6": 6745,
  "fas": 6746,
  "\u2581[2],": 6747,
  "\u2581eingerichtet": 6748,
  "\u2581bekendgemaakt": 6749,
  "\u2581belastingen": 6750,
  "\u2581aandelen": 6751,
  "\u2581zekere": 6752,
  "\u2581MKB": 6753,
  "pan": 6754,
  "ppe": 6755,
  "BE": 6756,
  "richt": 6757,
  "\u2581zuerst": 6758,
  "aut": 6759,
  "\u2581verzekeringen": 6760,
  "lant": 6761,
  "\u258111,": 6762,
  "\u2581Absicht": 6763,
  "\u2581afge": 6764,
  "SD": 6765,
  ".2.": 6766,
  "\u2581Kr": 6767,
  "taal": 6768,
  "\u2581angebracht": 6769,
  "\u2581Mund": 6770,
  "\u2581territoriale": 6771,
  "wij": 6772,
  "pop": 6773,
  "\u2581my": 6774,
  "\u2581passagiers": 6775,
  "mb": 6776,
  "\u2581erscheint": 6777,
  "\u2581vennootschap": 6778,
  "\u2581Michael": 6779,
  "sur": 6780,
  "\u2581uitoefening": 6781,
  "\u2581PE": 6782,
  "\u2581aanvaarden": 6783,
  "\u2581interessiert": 6784,
  "\u2581nood": 6785,
  "\u2581Nieuwe": 6786,
  "\u2581voorafgaande": 6787,
  "\u2581handelingen": 6788,
  "\u2581CD": 6789,
  "\u2581gebeurtenissen": 6790,
  "cn": 6791,
  "\u2581Haushaltsjahr": 6792,
  "\u2581Datenschutz": 6793,
  "\u2581harde": 6794,
  "\u2581voorkomend": 6795,
  "\u2581Pr\u00fcfungen": 6796,
  "Di": 6797,
  "\u2581nehme": 6798,
  "lis": 6799,
  "\u2581Einzelheiten": 6800,
  "\u2581uitgebreide": 6801,
  "\u2581Cyprus": 6802,
  "\u2581Jean": 6803,
  "\u2581gewerkt": 6804,
  "\u2581gewone": 6805,
  "commissie": 6806,
  "\u2581kregen": 6807,
  "ati": 6808,
  "dienstleistungen": 6809,
  "\u2581leger": 6810,
  "\u2581dokter": 6811,
  "\u2581onderhoud": 6812,
  "\u2581Folgendes": 6813,
  "gelijk": 6814,
  "i\u00ebn": 6815,
  "\u2581laut": 6816,
  "\u2581Erachten": 6817,
  "\u2581konkrete": 6818,
  "gebruik": 6819,
  "\u2581Eisenbahn": 6820,
  "\u2581bezoeken": 6821,
  "\u2581verdeeld": 6822,
  "\u2581einheitliche": 6823,
  "methyl": 6824,
  "\u2581gedefinieerd": 6825,
  "ped": 6826,
  "klasse": 6827,
  "\u2581ausgesetzt": 6828,
  "\u03b5": 6829,
  "\u2581lossen": 6830,
  "\u2581Schatz": 6831,
  "\u2581Ursprungs": 6832,
  "\u2581Th": 6833,
  "\u2581voelt": 6834,
  "\u2581\u00f6ffentlich": 6835,
  "\u2581Nahrungsmittel": 6836,
  "raal": 6837,
  "rd": 6838,
  "eller": 6839,
  "uh": 6840,
  "\u2581toekenning": 6841,
  "\u2581Mord": 6842,
  "\u2581el": 6843,
  "\u2581garanties": 6844,
  "\u2581Vielfalt": 6845,
  "liches": 6846,
  "\u00eb": 6847,
  "\u2581eer": 6848,
  "\u2581pensioen": 6849,
  "\u2044": 6850,
  "\u2581Vorteil": 6851,
  "eva": 6852,
  "\u2581unterrichtet": 6853,
  "\u2581Ausbau": 6854,
  "\u2581hoort": 6855,
  "\u2581gebe": 6856,
  "\u2581Allgemeinen": 6857,
  "\u2581hierna": 6858,
  "\u2581Samen": 6859,
  "tier": 6860,
  "\u2581lijden": 6861,
  "weise": 6862,
  "TI": 6863,
  "\u2581sancties": 6864,
  "itis": 6865,
  "\u2581rug": 6866,
  "\u2581Meter": 6867,
  "hung": 6868,
  "\u2581houdend": 6869,
  "\u2581Groot": 6870,
  "\u03bd": 6871,
  "\u2581erfolgreich": 6872,
  "\u2581eiland": 6873,
  "\u2581samenstelling": 6874,
  "\u2581Funktionen": 6875,
  "nkt": 6876,
  "\u2581Landbouw": 6877,
  "\"),": 6878,
  "zwischen": 6879,
  "\u2581Privat": 6880,
  "ath": 6881,
  "\u2581voorkeur": 6882,
  "\u2581Link": 6883,
  "\u2581unterliegen": 6884,
  "\u2581Pr\u00e4sidentschaft": 6885,
  "AD": 6886,
  "telecommunicatie": 6887,
  "\u2581Verl\u00e4ngerung": 6888,
  "pu": 6889,
  "yr": 6890,
  "\u2581ideal": 6891,
  "\u2581voortdurend": 6892,
  "raad": 6893,
  "\u2581begann": 6894,
  "\u2581Fra": 6895,
  "\u2581daarop": 6896,
  "basisverordening": 6897,
  "\u2581val": 6898,
  "\u2581infolge": 6899,
  "\u2581Auge": 6900,
  "rust": 6901,
  "gekomen": 6902,
  "\u2581Geht": 6903,
  "projecten": 6904,
  "\u2581fraude": 6905,
  "\u2581Ma\u00dfgabe": 6906,
  "pul": 6907,
  "zz": 6908,
  "\u2581ewig": 6909,
  "dar": 6910,
  "frei": 6911,
  "\u2581Errichtung": 6912,
  "versorgung": 6913,
  "{": 6914,
  "\u2581sterker": 6915,
  "\u2581Erstattung": 6916,
  "\u2581Kennzeichnung": 6917,
  "ska": 6918,
  "preise": 6919,
  "LAN": 6920,
  "\u2581genie\u00dfen": 6921,
  "card": 6922,
  "hard": 6923,
  "\u2581Stra": 6924,
  "\u2581optie": 6925,
  "ct": 6926,
  "\u2581zahlreiche": 6927,
  "\u2581Nationale": 6928,
  "\u2581wateren": 6929,
  "\u2581Fu": 6930,
  "teren": 6931,
  "\u2581Staatsangeh\u00f6rig": 6932,
  "sbeh\u00f6rden": 6933,
  "ssysteme": 6934,
  "\u2581senden": 6935,
  "=": 6936,
  "proces": 6937,
  "deel": 6938,
  "\u2581mar": 6939,
  "\u2581verkeerd": 6940,
  "\u2581benadrukt": 6941,
  "\u2581Zielen": 6942,
  "\u2581glaubt": 6943,
  "\u2581Russland": 6944,
  "verandering": 6945,
  "hat": 6946,
  "\u2581Beratung": 6947,
  "\u2581Hafen": 6948,
  "\\": 6949,
  "\u2581m\u00f6gliche": 6950,
  "\u2581Ehre": 6951,
  "\u2581Volg": 6952,
  "\u2581berg": 6953,
  "\u2581tijden": 6954,
  "\u2581st\u00e4rken": 6955,
  "\u2581kwijt": 6956,
  "Co": 6957,
  "\u2581ruim": 6958,
  "\u2581internationaler": 6959,
  "\u2581vrijstelling": 6960,
  "\u2581geleerd": 6961,
  "\u2581rijk": 6962,
  "\u2581dorp": 6963,
  "/2000": 6964,
  "sm\u00f6glichkeiten": 6965,
  "\u2581boot": 6966,
  "\u2581Feststellung": 6967,
  "\u2581verfolgen": 6968,
  "\u2581manieren": 6969,
  "\u2581angezeigt": 6970,
  "\u2581Afghanistan": 6971,
  "\u2581genauso": 6972,
  "\u2581unver": 6973,
  "sbe": 6974,
  "\u2581schrieb": 6975,
  "splan": 6976,
  "\u2581reacties": 6977,
  "setzung": 6978,
  "\u2581verwijzing": 6979,
  "\u2581wenst": 6980,
  "\u2581vi": 6981,
  "\u2581Ren": 6982,
  "\u2581Betreiber": 6983,
  "\u2581veroorzaken": 6984,
  "\u2581Ausf\u00fchrung": 6985,
  "\u2581Technische": 6986,
  "\u2581distributie": 6987,
  "\u2581witte": 6988,
  "TO": 6989,
  "analyse": 6990,
  "\u2581berichten": 6991,
  "\u2581Lesung": 6992,
  "\u2581sla": 6993,
  "bestanden": 6994,
  "anda": 6995,
  "\u2581permanente": 6996,
  "\u2581Sub": 6997,
  "\u2581gedetailleerde": 6998,
  "\u2581uitgerust": 6999,
  "\u2581GHT": 7000,
  "ele": 7001,
  "\u2581Bundes": 7002,
  "\u2581Voraussetzung": 7003,
  "\u2581goedgekeurde": 7004,
  "autoriteiten": 7005,
  "sfonds": 7006,
  "uss": 7007,
  "\u2581toerisme": 7008,
  "\u2581aanvulling": 7009,
  "\u2581Management": 7010,
  "\u2581erhoben": 7011,
  "\u2581\u00fcberzeugt": 7012,
  "\u2581compromis": 7013,
  "\u2581serie": 7014,
  "\u2581sturen": 7015,
  "assi": 7016,
  "\u2581lopende": 7017,
  "\u2581Dokumente": 7018,
  "\u2581Produktions": 7019,
  "\u2581weiterer": 7020,
  "\u2581site": 7021,
  "\u2581Mededeling": 7022,
  "\u2581ungef\u00e4hr": 7023,
  "\u2581overwegingen": 7024,
  "PL": 7025,
  "\u2581teken": 7026,
  "Po": 7027,
  "\u2581Engels": 7028,
  "\u2581slachtoffers": 7029,
  "\u2581verkaufen": 7030,
  "ero": 7031,
  "\u2581uiteraard": 7032,
  "\u2581welchen": 7033,
  "\u2581Forderung": 7034,
  "\u2581j\u00e4hrlichen": 7035,
  "\u25813)": 7036,
  "pol": 7037,
  "IP": 7038,
  "\u2581KN": 7039,
  "water": 7040,
  "\u2581Gef\u00e4ngnis": 7041,
  "\u2581inbegrepen": 7042,
  "\u2581last": 7043,
  "\u2581Hongarije": 7044,
  "\u2581sobald": 7045,
  "pla": 7046,
  "\u2581Mitgliedern": 7047,
  "\u2581laufen": 7048,
  "doen": 7049,
  "\u2581statistieken": 7050,
  "\u2581bracht": 7051,
  "\u2581inge": 7052,
  "\u2581hilft": 7053,
  "\u2581Lees": 7054,
  "\u2581stelde": 7055,
  "\u2581praat": 7056,
  "\u2581verstanden": 7057,
  "\u2581damals": 7058,
  "Aus": 7059,
  "62": 7060,
  "\u25814.2": 7061,
  "sme": 7062,
  "amt": 7063,
  "blick": 7064,
  "\u2581Bemerkungen": 7065,
  "2006": 7066,
  "trau": 7067,
  "\u2581stil": 7068,
  "mmel": 7069,
  "\u2581fr\u00fcheren": 7070,
  "ssystemen": 7071,
  "\u2581ergriffen": 7072,
  "\u2581ho": 7073,
  "\u2581lagere": 7074,
  "\u2581landbouwbeleid": 7075,
  "-5": 7076,
  "osa": 7077,
  "illy": 7078,
  "6%": 7079,
  "\u2581schap": 7080,
  "\u2581Il": 7081,
  "\u2581Mittelmeer": 7082,
  "\u2581graden": 7083,
  "\u2581Pflicht": 7084,
  "\u2581trifft": 7085,
  "\u2581Verbindungen": 7086,
  "\u2581---": 7087,
  "\u2581zomer": 7088,
  "\u2581Nachrichten": 7089,
  "\u2581Planung": 7090,
  "\u2581Bestandteile": 7091,
  "\u2581Team": 7092,
  "kraft": 7093,
  "\u2581vorlegen": 7094,
  "\u2581symptomen": 7095,
  "\u2581Richter": 7096,
  "\u2581\u00e0": 7097,
  "Code": 7098,
  "\u2581Berufs": 7099,
  "achtige": 7100,
  "la\u00df": 7101,
  "\u2581Verbot": 7102,
  "7,": 7103,
  "\u2581vaartuigen": 7104,
  "\u2581menschliche": 7105,
  "\u2581Agrarpolitik": 7106,
  "\u2581Huis": 7107,
  "\u2581wor": 7108,
  "teerde": 7109,
  "\u2581uitmaken": 7110,
  "\u2581definiert": 7111,
  "\u2581festzustellen": 7112,
  "ties": 7113,
  "\u2581ISO": 7114,
  "fel": 7115,
  "\u2581Verlust": 7116,
  "\u2581130": 7117,
  "\u2581starten": 7118,
  "qua": 7119,
  "\u2581Bewegung": 7120,
  "\u2581Nederlandse": 7121,
  "\u25811,5": 7122,
  "\u2581merkt": 7123,
  "blad": 7124,
  "\u2581bronnen": 7125,
  "maschinen": 7126,
  "\u2581ausgef\u00fchrt": 7127,
  "\u2581wirksame": 7128,
  "\u2581dankzij": 7129,
  "\u2581niveaus": 7130,
  "\u2581levende": 7131,
  "\u2581data": 7132,
  "\u2581herzien": 7133,
  "\u2581Zentralbank": 7134,
  "\u2581irgendeine": 7135,
  "\u2581geproduceerd": 7136,
  "\u00b7": 7137,
  "\u2581handhaving": 7138,
  "exa": 7139,
  "\u2581Vertrages": 7140,
  "\u2581Zwitserland": 7141,
  "\u2581begrotingsjaar": 7142,
  "\u2581onlangs": 7143,
  "ido": 7144,
  "\u2581B\u00fcrgern": 7145,
  "\u2581Gabe": 7146,
  "\u2581finanziert": 7147,
  "\u2581uitgesloten": 7148,
  "\u2581solidariteit": 7149,
  "\u2581Quelle": 7150,
  "\u2581indruk": 7151,
  "\u2581trein": 7152,
  "\u2581feststellen": 7153,
  "\u2581CYP": 7154,
  "schreef": 7155,
  "\u2581vermelding": 7156,
  "\u2581zijde": 7157,
  "katie": 7158,
  "\u2581erscheinen": 7159,
  "\u2581zodra": 7160,
  "\u2581Heel": 7161,
  "ruimte": 7162,
  "\u2581radio": 7163,
  "\u2581Merc": 7164,
  "\u2581betrachten": 7165,
  "\u2581Grundverordnung": 7166,
  "\u2581luister": 7167,
  "\u2581Verfassung": 7168,
  "\u2581Reis": 7169,
  "karte": 7170,
  "\u2581uiterst": 7171,
  "\u2581bodem": 7172,
  "namen": 7173,
  "-10": 7174,
  "\u2581haven": 7175,
  "schrift": 7176,
  "\u2581moord": 7177,
  "\u2581identificatie": 7178,
  "\u2581boodschap": 7179,
  "hierna": 7180,
  "\u2581Jugendlichen": 7181,
  "su": 7182,
  "\u2581Stop": 7183,
  "laag": 7184,
  "\u2581kritische": 7185,
  "\u2581derselben": 7186,
  "\u2581geschrieben": 7187,
  "\u2581onderling": 7188,
  "\u2581bijlagen": 7189,
  "\u2581bestimmen": 7190,
  "\u2581aufgefordert": 7191,
  "To": 7192,
  "\u2581onderscheid": 7193,
  "\u2581Dag": 7194,
  "wetgeving": 7195,
  "\u2581Dia": 7196,
  ".1.": 7197,
  "\u2581Brand": 7198,
  "\u2581Kenn": 7199,
  "\u2581deelnemers": 7200,
  "schuldigung": 7201,
  "positie": 7202,
  "ient": 7203,
  "\u2581Vorschl\u00e4gen": 7204,
  "\u2581mocht": 7205,
  "\u2581laufenden": 7206,
  "wirtschaft": 7207,
  "\u2581Achtung": 7208,
  "\u2581Mas": 7209,
  "\u2581wederzijdse": 7210,
  "\u2581800": 7211,
  "\u2581tekort": 7212,
  "\u2581wetenschap": 7213,
  "\u2581Abgabe": 7214,
  "systems": 7215,
  "\u2581Berlin": 7216,
  "ford": 7217,
  "\u2581gisteren": 7218,
  "\u2581handhaven": 7219,
  "\u2581landbouwproduct": 7220,
  "\u2581abh\u00e4ngig": 7221,
  "\u2581unbe": 7222,
  "\u2581010": 7223,
  "\u2581toegevoegde": 7224,
  "\u2581verscheidene": 7225,
  "\u2581nadere": 7226,
  "\u2581Ger\u00e4t": 7227,
  "\u2581deelneming": 7228,
  "\u2581Sanktionen": 7229,
  "/2002": 7230,
  "\u2581[4]": 7231,
  "\u2581alstublieft": 7232,
  "fr": 7233,
  "\u2581F\u00fchrung": 7234,
  "\u2581Kroatien": 7235,
  "\u2581geluid": 7236,
  "\u2581vooruit": 7237,
  "\u2581Wald": 7238,
  "8%": 7239,
  "\u2581endg\u00fcltigen": 7240,
  "\u2581Einfluss": 7241,
  "\u2581klare": 7242,
  "\u2581High": 7243,
  "\u2581ermittelt": 7244,
  "\u2581daling": 7245,
  "\u2581producent": 7246,
  "gan": 7247,
  "\u2581gebouwen": 7248,
  "\u2581pap": 7249,
  "\u2581Br\u00fcder": 7250,
  "\u2581begunstigde": 7251,
  "kers": 7252,
  "regio": 7253,
  "\u2581angemessenen": 7254,
  "\u2581getragen": 7255,
  "ange": 7256,
  "\u2581Begr\u00fcndung": 7257,
  "\u2581Cl": 7258,
  "\u2581ondertekend": 7259,
  "\u2581fr": 7260,
  "\u2581ochtend": 7261,
  "\u2581vergelijkbaar": 7262,
  "\u2581Hun": 7263,
  "machen": 7264,
  "\u2581Glaub": 7265,
  "\u2581gehecht": 7266,
  "rap": 7267,
  "\u2581Mil": 7268,
  "\u00e4t": 7269,
  "\u2581vak": 7270,
  "capaciteit": 7271,
  "\u2581Doppel": 7272,
  "\u25811%": 7273,
  "\u2581App": 7274,
  "\u2581Hinter": 7275,
  "lap": 7276,
  "\u2581Wagen": 7277,
  "\u2581Verteidigung": 7278,
  "\u2581zudem": 7279,
  "\u2581kinder": 7280,
  "gaat": 7281,
  "tol": 7282,
  "\u2581principe": 7283,
  "gat": 7284,
  "\u2581Tru": 7285,
  "\u2581maat": 7286,
  "\u2581Wees": 7287,
  "\u2581gestemd": 7288,
  "\u2581Fernseh": 7289,
  "\u2581jungen": 7290,
  "ger\u00e4te": 7291,
  "flu": 7292,
  "\u2581tief": 7293,
  "\u2581rasch": 7294,
  "\u2581And": 7295,
  "4-": 7296,
  "digt": 7297,
  "\u2581potentieel": 7298,
  "\u2581(4": 7299,
  "\u2581K\u00fchlschrank": 7300,
  "IR": 7301,
  "\u2581Presse": 7302,
  "rouw": 7303,
  "\u2581Abf\u00e4lle": 7304,
  "\u2581sm": 7305,
  "\u2581Schwerpunkt": 7306,
  "\u2581zijnde": 7307,
  "\u2581veld": 7308,
  "\u2581Tabel": 7309,
  "\u2581multilaterale": 7310,
  "fra": 7311,
  "\u2581bespreken": 7312,
  "\u2581einzelne": 7313,
  "halten": 7314,
  "\u2581netto": 7315,
  "\u2581hiermee": 7316,
  "pper": 7317,
  "\u2581herinneren": 7318,
  "\u2581vergeleken": 7319,
  "\u2581derartige": 7320,
  "\u2581erkende": 7321,
  "\u2581Beteiligten": 7322,
  "\u2581Firma": 7323,
  "\u2581behoort": 7324,
  "\u2581Beitr\u00e4ge": 7325,
  "\u00ea": 7326,
  "\u2581St\u00e4dte": 7327,
  "\u2581Erg\u00e4nzung": 7328,
  "wal": 7329,
  "lle": 7330,
  "\u2581harte": 7331,
  "informationen": 7332,
  "alen": 7333,
  "\u2581hierover": 7334,
  "\u2581retten": 7335,
  "LO": 7336,
  "tec": 7337,
  "llen": 7338,
  "\u2581voller": 7339,
  "La": 7340,
  "har": 7341,
  "\u258140%": 7342,
  "\u2581wenige": 7343,
  "}": 7344,
  "\u2581Ya": 7345,
  "4,": 7346,
  "box": 7347,
  "\u2581Onderzoek": 7348,
  "\u2581Befugnisse": 7349,
  "seks": 7350,
  "\u2581beteiligten": 7351,
  "\u2581Mont": 7352,
  "lob": 7353,
  "\u2581geleistet": 7354,
  "\u2581Sicher": 7355,
  "\u2581verlenging": 7356,
  "\u2581verstrekte": 7357,
  "\u2581besch\u00e4ftigt": 7358,
  "\u2581positiv": 7359,
  "phe": 7360,
  "dies": 7361,
  "\u2581hierboven": 7362,
  "r\u00fchm": 7363,
  "pl\u00e4tze": 7364,
  "\u2581informiert": 7365,
  "\u2581verboten": 7366,
  "\u2581gew\u00e4hren": 7367,
  "\u2581herum": 7368,
  "dor": 7369,
  "ming": 7370,
  "\u2581Europe": 7371,
  "\u2581Bevor": 7372,
  "brechen": 7373,
  "\u2581Chinese": 7374,
  "\u2581wees": 7375,
  "\u2581pakket": 7376,
  "\u2581eu": 7377,
  "\u2581eindelijk": 7378,
  "team": 7379,
  "\u2581Flu": 7380,
  "\u2581Optionen": 7381,
  "\u2581volwassenen": 7382,
  "\u2581gevangen": 7383,
  "Pro": 7384,
  "\u2581Gefahren": 7385,
  "\u2581Bulgarije": 7386,
  "hlen": 7387,
  "\u2581Rechtssache": 7388,
  "\u2581aufgehoben": 7389,
  "\u2581mandaat": 7390,
  "Registr": 7391,
  "bett": 7392,
  "2008": 7393,
  "\u2581niedriger": 7394,
  "EI": 7395,
  "\u2581dekking": 7396,
  "\u2581Funktionieren": 7397,
  "\u2581Gehalt": 7398,
  "\u2581Buitenlands": 7399,
  "ona": 7400,
  "tige": 7401,
  "\u2581Neue": 7402,
  "\u2581slapen": 7403,
  "\u2581eenheden": 7404,
  "\u2581zahlen": 7405,
  "ugh": 7406,
  "\u2581plaatsgevonden": 7407,
  "tter": 7408,
  "\u2581gemeld": 7409,
  "\u2581verursacht": 7410,
  "tat": 7411,
  "\u2581benutzen": 7412,
  "\u2581Milliarden": 7413,
  "\u2581fordern": 7414,
  "\u2581Design": 7415,
  "\u2581raakt": 7416,
  "\u2581bijeenkomst": 7417,
  "\u2581nogmaals": 7418,
  "Ka": 7419,
  "machine": 7420,
  "\u2581verbruik": 7421,
  "\u2581Erteilung": 7422,
  "\u2581Robert": 7423,
  "\u2581relativ": 7424,
  "wei": 7425,
  "cal": 7426,
  "artig": 7427,
  "\u2581potenti\u00eble": 7428,
  "\u2581douche": 7429,
  "gekommen": 7430,
  "leben": 7431,
  "\u2581Med": 7432,
  "\u2581onver": 7433,
  "staan": 7434,
  "\u2581Stern": 7435,
  "\u2581geregistreerd": 7436,
  "\u2581Arzneimitteln": 7437,
  "produktion": 7438,
  "\u2581Beide": 7439,
  "\u2581Sein": 7440,
  "\u2581zake": 7441,
  "\u2581erzielen": 7442,
  "\u2581Aantal": 7443,
  "\u2581As": 7444,
  "\u2581negen": 7445,
  "\u2581enthaltenen": 7446,
  "\u2581nauw": 7447,
  "\u2581Zweitens": 7448,
  "aai": 7449,
  "\u2581meint": 7450,
  "reck": 7451,
  "\u258105": 7452,
  "\u2581rechtlichen": 7453,
  "\u2581falschen": 7454,
  "\u2581lot": 7455,
  "\u2581situaties": 7456,
  "ato": 7457,
  "\u2581Hem": 7458,
  "\";": 7459,
  "\u2581installatie": 7460,
  "\u2581Ober": 7461,
  "\u2581gegenw\u00e4rtigen": 7462,
  "\u2581uitzicht": 7463,
  "\u2581beleids": 7464,
  "\u2581G\u00e4ste": 7465,
  "\u2581France": 7466,
  "\u2581Kommunikations": 7467,
  "\u2581Fort": 7468,
  "\u2581hypo": 7469,
  "\u2581vorliegen": 7470,
  "\u00e4re": 7471,
  "\u2581handelen": 7472,
  "\u2581angst": 7473,
  "\u2581gezondheids": 7474,
  "\u2581Klage": 7475,
  "lement": 7476,
  "\u2581Feind": 7477,
  "\u2581eet": 7478,
  "zelfde": 7479,
  "\u2581entscheidend": 7480,
  "\u258108": 7481,
  "\u2581Log": 7482,
  "\u2581AB": 7483,
  "\u2581nieder": 7484,
  "\u2581Kroati\u00eb": 7485,
  "Abkommen": 7486,
  "\u2581schreiben": 7487,
  "\u2581straf": 7488,
  "\u00d6": 7489,
  "schl\u00fcssel": 7490,
  "chte": 7491,
  "\u2581Fo": 7492,
  "srechts": 7493,
  "\u2581f\u00fchlen": 7494,
  "\u2581schneller": 7495,
  "eisen": 7496,
  "por": 7497,
  "erweise": 7498,
  "rink": 7499,
  "\u2581passend": 7500,
  "i\u00eble": 7501,
  "\u2581GATT": 7502,
  "reise": 7503,
  "\u2581rekeningen": 7504,
  "\u2581waard": 7505,
  "\u2581past": 7506,
  "\u2581vaardigheden": 7507,
  "\u2581teil": 7508,
  "\u2581zunehmend": 7509,
  "virus": 7510,
  "rk": 7511,
  "\u2581Bus": 7512,
  "\u2581bedanken": 7513,
  "lassen": 7514,
  "\u2581Fenster": 7515,
  "yo": 7516,
  "\u2581Lehrer": 7517,
  "\u2581SE": 7518,
  "\u2581Bre": 7519,
  "\u2581sc": 7520,
  "kracht": 7521,
  "\u2581Symbol": 7522,
  "ail": 7523,
  "\u2581wesentliche": 7524,
  "\u2581gezondheidszorg": 7525,
  "\u2581k\u00fcnftige": 7526,
  "alu": 7527,
  "\u2581non": 7528,
  "\u2581uitrusting": 7529,
  "setzt": 7530,
  "\u2581urspr\u00fcnglichen": 7531,
  "\u2581Wunder": 7532,
  "\u2581nahmen": 7533,
  "teerd": 7534,
  "\u2581Referenz": 7535,
  "ball": 7536,
  "voorwaarden": 7537,
  "\u2581televisie": 7538,
  "\u03bf": 7539,
  "\u2581Justiz": 7540,
  "\u2581Erkl\u00e4rungen": 7541,
  "\u2581Ali": 7542,
  "\u2581zw\u00f6lf": 7543,
  "\u2581Betriebe": 7544,
  "lar": 7545,
  "\u2581actieplan": 7546,
  "\u2581Radio": 7547,
  "\u2581herkomst": 7548,
  "\u2581eingeleitet": 7549,
  "bord": 7550,
  "\u2581\u00d6ffnung": 7551,
  "\u2581Gesetzgebung": 7552,
  "\u2581las": 7553,
  "\u2581Kl": 7554,
  "kaart": 7555,
  "\u2581Dublin": 7556,
  "pil": 7557,
  "\u2581adviezen": 7558,
  "produkt": 7559,
  "\u258115%": 7560,
  "\u2581Programmen": 7561,
  "\u2581Charakter": 7562,
  "\u2581Parijs": 7563,
  "\u2581Forum": 7564,
  "inner": 7565,
  "\u2581ziekenhuis": 7566,
  "iteit": 7567,
  "\u2581lening": 7568,
  "\u2581Konzentration": 7569,
  "\u2581verbinden": 7570,
  "\u2581bleef": 7571,
  "\u2581gelangen": 7572,
  "nor": 7573,
  "gut": 7574,
  "ali": 7575,
  "PA": 7576,
  "\u2581Aufenthalt": 7577,
  "\u2581machine": 7578,
  "Ratspr\u00e4sident": 7579,
  "\u2581tro": 7580,
  "\u2581factor": 7581,
  "\u2581Regional": 7582,
  "\u2581f\u00fcrchte": 7583,
  "Wir": 7584,
  "freie": 7585,
  "haltung": 7586,
  "\u2581sagten": 7587,
  "\u2581Beziehung": 7588,
  "\u2581behandeln": 7589,
  "ative": 7590,
  "\u2581apparaat": 7591,
  "\u2581durchf\u00fchren": 7592,
  "\u00e9r": 7593,
  "\u2581Sicherung": 7594,
  "\u2581reclame": 7595,
  "\u2581ontmoet": 7596,
  "rill": 7597,
  "\u2581vorl\u00e4ufigen": 7598,
  "\u2581verzamelen": 7599,
  "\u2581Hen": 7600,
  "\u2581Version": 7601,
  "olo": 7602,
  "ique": 7603,
  "ref": 7604,
  "loot": 7605,
  "\u2581Kamer": 7606,
  "\u2581verwezenlijken": 7607,
  "\u2581glas": 7608,
  "\u258180%": 7609,
  "\u2581zur\u00fcckzuf\u00fchren": 7610,
  "\u2581straat": 7611,
  "\u2581jene": 7612,
  "\u2581Zug": 7613,
  "waren": 7614,
  "\u2581erover": 7615,
  "ret": 7616,
  "Vertrags": 7617,
  "zone": 7618,
  "isieren": 7619,
  "\u2581erkannt": 7620,
  "MI": 7621,
  "\u258113,": 7622,
  "dige": 7623,
  "\u2581arbeid": 7624,
  "\u2581AUF": 7625,
  "cu": 7626,
  "\u2581ofwel": 7627,
  "\u2581auszu": 7628,
  "una": 7629,
  "sland": 7630,
  "\u2581Leitung": 7631,
  "\u2581onbe": 7632,
  "\u2581bewertet": 7633,
  "IF": 7634,
  "\u2581anschlie\u00dfend": 7635,
  "\u2581geringer": 7636,
  "omstandigheden": 7637,
  "-1-": 7638,
  "\u2581voortgezet": 7639,
  "\u2581pers\u00f6nlich": 7640,
  "\u2581slag": 7641,
  "\u2581Beschr\u00e4nkungen": 7642,
  "\u2581Ungarn": 7643,
  "\u2581velen": 7644,
  "\u2581haat": 7645,
  "menge": 7646,
  "ordnung": 7647,
  "\u2581Marktes": 7648,
  "tischen": 7649,
  "\u2581subsidies": 7650,
  "\u2581bijeen": 7651,
  "\u2581European": 7652,
  "\u2581snelheid": 7653,
  "\u2581bus": 7654,
  "\u2581dosering": 7655,
  "nehmen": 7656,
  "\u2581lo": 7657,
  "kwam": 7658,
  "\u2581beruht": 7659,
  "\u2581m\u00f6gen": 7660,
  "\u2581Fang": 7661,
  "strijd": 7662,
  "\u2581reageren": 7663,
  "\u2581maal": 7664,
  "\u2581opties": 7665,
  "\u2581akzeptieren": 7666,
  "ea": 7667,
  "\u2581Rechtsgrundlage": 7668,
  "ringe": 7669,
  "\u2581Ausr\u00fcstung": 7670,
  "\u2581slaan": 7671,
  "\u2581Via": 7672,
  "\u2581meet": 7673,
  "\u2581overigens": 7674,
  "stecken": 7675,
  "\u2581Klar": 7676,
  "\u2581opgemerkt": 7677,
  "\u2581ausgeschlossen": 7678,
  "\u2581ingediende": 7679,
  "wort": 7680,
  "\u20ac": 7681,
  "AU": 7682,
  "rufen": 7683,
  "\u2581investerings": 7684,
  "\u2581Gemeen": 7685,
  "\u258112,": 7686,
  "ith": 7687,
  "\u2581hopen": 7688,
  "lauf": 7689,
  "\u2581RT": 7690,
  "\u2581Reformen": 7691,
  "\u2581Rum\u00e4nien": 7692,
  "\u2581Aspekt": 7693,
  "\u03b7": 7694,
  "\u2581park": 7695,
  "\u2581Club": 7696,
  "\u2581schwere": 7697,
  "Sie": 7698,
  "nal": 7699,
  "\u2581Bahn": 7700,
  "\u00ae": 7701,
  "gouvernementele": 7702,
  "\u2581hoeven": 7703,
  "\u2581idee\u00ebn": 7704,
  "\u2581Dienstleistungs": 7705,
  "og": 7706,
  "\u2581umfassende": 7707,
  "\u2581tats\u00e4chlichen": 7708,
  "schauen": 7709,
  "energie": 7710,
  "\u2581MA": 7711,
  "\u2581mobiele": 7712,
  "\u2581blijf": 7713,
  "erei": 7714,
  "ory": 7715,
  "institutionellen": 7716,
  "9%": 7717,
  "-20": 7718,
  "steuer": 7719,
  "sausschusses": 7720,
  "\u2581Gesch\u00e4ft": 7721,
  "kl": 7722,
  "\u2581belangstelling": 7723,
  "\u2581neun": 7724,
  "\u2581gerechtvaardigd": 7725,
  "\u2581vrees": 7726,
  "\u2581uitoefenen": 7727,
  "\u2581verringern": 7728,
  "\u2581bestehende": 7729,
  "getwijfeld": 7730,
  "\u2581Karten": 7731,
  "\u2581overgang": 7732,
  "\u2581sneller": 7733,
  "alit\u00e4t": 7734,
  "\u2581verkauft": 7735,
  "lijkheden": 7736,
  "\u2581(8)": 7737,
  "\u2581Lauf": 7738,
  "\u2581vorgeschrieben": 7739,
  "\u2581degene": 7740,
  "komt": 7741,
  "\u2581voorts": 7742,
  "sturen": 7743,
  "\u2581hoofdzakelijk": 7744,
  "\u2581toepassingen": 7745,
  "download": 7746,
  "\u2581priv\u00e9": 7747,
  "geht": 7748,
  "\u00dft": 7749,
  "\u2581terrorisme": 7750,
  "svoorwaarden": 7751,
  "\u2581gesch": 7752,
  "ruf": 7753,
  "\u2581elektriciteit": 7754,
  "\u2581Waffe": 7755,
  "\u2581vliegtuig": 7756,
  "\u2581bewusst": 7757,
  "\u2581beteiligen": 7758,
  "\u2581125": 7759,
  "\u2581Buchung": 7760,
  "\u2581selten": 7761,
  "\u2581uitstekende": 7762,
  "\u2581Finnland": 7763,
  "\u2581afzonderlijk": 7764,
  "\u2581maatschappij": 7765,
  "nicht": 7766,
  "\u2581geltend": 7767,
  "\u2581art": 7768,
  "\u2581publi": 7769,
  "kwaliteit": 7770,
  "SS": 7771,
  "\u2581merken": 7772,
  "tritt": 7773,
  "\u2581Urlaub": 7774,
  "mond": 7775,
  "\u2581teksten": 7776,
  "\u2581G\u00fcter": 7777,
  "\u2581Bed\u00fcrfnisse": 7778,
  "\u2581risk": 7779,
  "\u2581erstellen": 7780,
  "ual": 7781,
  "\u2581Ausgangs": 7782,
  "f\u00fchrer": 7783,
  "\u2581konzentrieren": 7784,
  "\u2581Vereinfachung": 7785,
  "ompromi": 7786,
  "\u2581verletzt": 7787,
  "aza": 7788,
  "\u2581beschermd": 7789,
  "\u2581Wolle": 7790,
  "\u2581balans": 7791,
  "\u2581nota": 7792,
  "\u2581eigenes": 7793,
  "einrichtungen": 7794,
  "\u2581Zonder": 7795,
  "\u2581aanpassen": 7796,
  "\u2581Krankenhaus": 7797,
  "setzen": 7798,
  "\u2581anzu": 7799,
  "\u2581solange": 7800,
  "qu": 7801,
  "\u2581onderdanen": 7802,
  "Ma": 7803,
  "\u2581Grote": 7804,
  "oth": 7805,
  "lung": 7806,
  "erde": 7807,
  "\u2581Standards": 7808,
  "atur": 7809,
  "\u2581Erstellung": 7810,
  "\u2581Iemand": 7811,
  "ctor": 7812,
  "\u2581slachtoffer": 7813,
  "NA": 7814,
  "\u2581verklaringen": 7815,
  "\u2581Gemeinde": 7816,
  "\u25811234/2007": 7817,
  "\u2581Vergadering": 7818,
  "\u2581Letzte": 7819,
  "\u2581geschikte": 7820,
  "information": 7821,
  "\u2581sicherstellen": 7822,
  "\u2581Hin": 7823,
  "\u2581Beamten": 7824,
  "\u2581Juda": 7825,
  "\u2581klopt": 7826,
  "\u2581alternatieve": 7827,
  "\u2581prof": 7828,
  "\u2581wirkt": 7829,
  "\u2581weliswaar": 7830,
  "nia": 7831,
  "\u2581toewijzing": 7832,
  "\u2581eingehalten": 7833,
  "\u2581vergeben": 7834,
  "\u2581regelen": 7835,
  "\u2581mi": 7836,
  "\u2581ben\u00f6tigt": 7837,
  "\u2581aannemen": 7838,
  "\u2581beginnt": 7839,
  "\u2581Canada": 7840,
  "\u2581leg": 7841,
  "\u2581lautet": 7842,
  "timmt": 7843,
  "\u2581angegebenen": 7844,
  "RS": 7845,
  "fach": 7846,
  "\u2581beschrieben": 7847,
  "/5": 7848,
  "7%": 7849,
  "\u2581streng": 7850,
  "ond": 7851,
  "\u2581re\u00eble": 7852,
  "kin": 7853,
  "\u2581deutschen": 7854,
  "gericht": 7855,
  "\u2581brauch": 7856,
  "\u2581Rechtsakte": 7857,
  "zellen": 7858,
  "\u2581vervaardiging": 7859,
  "EB": 7860,
  "\u2581vorliegende": 7861,
  "AK": 7862,
  "\u2581zolang": 7863,
  "2%": 7864,
  "\u2581installaties": 7865,
  "\u2581proef": 7866,
  "sprozess": 7867,
  "\u2581unternehmen": 7868,
  "amerikanischen": 7869,
  "\u2581wakker": 7870,
  "\u2581afgevaardigden": 7871,
  "\u2581begrenzt": 7872,
  "\u2581zogenaamde": 7873,
  "\u2581Kommt": 7874,
  "\u2581virus": 7875,
  "ikken": 7876,
  "~": 7877,
  "AF": 7878,
  "\u258107": 7879,
  "\u2581compensatie": 7880,
  "\u2581brandstof": 7881,
  "\u2581halt": 7882,
  "\u2581automatische": 7883,
  "\u2581erfasst": 7884,
  "\u2581empfiehlt": 7885,
  "\u2581informieren": 7886,
  "/2006": 7887,
  "\u2581Terrorismus": 7888,
  "\u00fctze": 7889,
  "\u2581Lieferung": 7890,
  "schlag": 7891,
  "\u2581ehrlich": 7892,
  "imi": 7893,
  "4)": 7894,
  "\u2581temperatuur": 7895,
  "ller": 7896,
  "kus": 7897,
  "\u2581ziekten": 7898,
  "\u2581Strategien": 7899,
  "\u2581Vlieg": 7900,
  "huizen": 7901,
  "\u2581testen": 7902,
  "\u2581Ausgleich": 7903,
  "irgendwo": 7904,
  "novereenkomstig": 7905,
  "\u2581Farbe": 7906,
  "\u2581Staates": 7907,
  "barkeit": 7908,
  "\u2581Prinzip": 7909,
  "\u2581DA": 7910,
  "morgen": 7911,
  "methoden": 7912,
  "\u2581up": 7913,
  "\u2581vluchtelingen": 7914,
  "CH": 7915,
  "\u2581klinisch": 7916,
  "\u2581continu": 7917,
  "\u2581diep": 7918,
  "\u2581blijken": 7919,
  "\u2581Schaden": 7920,
  "rijk": 7921,
  "\u2581Han": 7922,
  "ikt": 7923,
  "esse": 7924,
  "\u2581voorlichting": 7925,
  "\u2581dritte": 7926,
  "\u2581sluit": 7927,
  "ula": 7928,
  "\u2581Schlu\u00df": 7929,
  "\u2581sichergestellt": 7930,
  "\u03b9": 7931,
  "chan": 7932,
  "IV": 7933,
  "\u2581unm\u00f6glich": 7934,
  "\u2581Nachricht": 7935,
  "ware": 7936,
  "\u2581Zentral": 7937,
  "\u2581tenminste": 7938,
  "\u2581voorzichtig": 7939,
  "dek": 7940,
  "Werden": 7941,
  "\u2581Stein": 7942,
  "\u2581opstelling": 7943,
  "\u2581tri": 7944,
  "\u2581ziek": 7945,
  "\u2581Fern": 7946,
  "\u2581geleidelijk": 7947,
  "\u2581plezier": 7948,
  "\u2581relevanten": 7949,
  "herstructurering": 7950,
  "\u2581inkomen": 7951,
  "\u2581wetgevingen": 7952,
  "\u2581operatie": 7953,
  "dd": 7954,
  "fan": 7955,
  "\u2581Act": 7956,
  "\u2581gewoonlijk": 7957,
  "\u2581vereinbar": 7958,
  "RON": 7959,
  "\u2581eingegangen": 7960,
  "gabe": 7961,
  "\u2581vermi": 7962,
  "\u2581eingereicht": 7963,
  "\u2581ti": 7964,
  "col": 7965,
  "\u2581Back": 7966,
  "\u2581fiscale": 7967,
  "isiert": 7968,
  "\u2581beantwoorden": 7969,
  "bahn": 7970,
  "\u2581bezorgdheid": 7971,
  "\u2581meisjes": 7972,
  "\u2581Cal": 7973,
  "\u2581georganiseerd": 7974,
  "\u2581Mut": 7975,
  "gung": 7976,
  "\u2581personenbezogen": 7977,
  "\u2581stammen": 7978,
  "\u2581Ausgabe": 7979,
  "\u2581reserve": 7980,
  "\u2581brachte": 7981,
  "RE": 7982,
  "ble": 7983,
  "structuurfondsen": 7984,
  "\u2581Pflege": 7985,
  "\u2581IP": 7986,
  "\u2581elektronischen": 7987,
  "\u2581bewaren": 7988,
  "bureau": 7989,
  "\u2581conflict": 7990,
  "ii": 7991,
  "\u2581vooruitzichten": 7992,
  "\u2581identiteit": 7993,
  "\u2581Vind": 7994,
  "\u25813%": 7995,
  "persoon": 7996,
  "\u2581gro\u00dfes": 7997,
  "\u2581bevestigen": 7998,
  "RR": 7999,
  "\u2581daaraan": 8000,
  "ous": 8001,
  "MM": 8002,
  "\u2581ontdekt": 8003,
  "\u2581zug\u00e4nglich": 8004,
  "\u2581voorziening": 8005,
  "doeltreffendheid": 8006,
  "ome": 8007,
  "\u2581toepasselijke": 8008,
  "\u2581Verklaring": 8009,
  "\u2581Zur\u00fcck": 8010,
  "\u2581grunds\u00e4tzlich": 8011,
  "\u2581toegelaten": 8012,
  "\u2581gefordert": 8013,
  "\u2581selecteren": 8014,
  "\u2581Angriff": 8015,
  "\u2581verringert": 8016,
  "\u2581betekenen": 8017,
  "\u2581wonder": 8018,
  "uil": 8019,
  "otto": 8020,
  "Ro": 8021,
  "\u2581#": 8022,
  "\u2581\u00fcbernommen": 8023,
  ".1.1": 8024,
  "\u2581Schwarz": 8025,
  "\u2581Overige": 8026,
  "\u2581Register": 8027,
  "-7": 8028,
  "\u2581bildet": 8029,
  "\u2581Voordat": 8030,
  "\u2581opgelost": 8031,
  "tzen": 8032,
  "\u2581Poli": 8033,
  "\u2581onverwijld": 8034,
  "\u2581Inhaber": 8035,
  "\u2581besluitvorming": 8036,
  "totstandbrenging": 8037,
  "steunmaatregelen": 8038,
  "\u2581Netto": 8039,
  "\u2581Zypern": 8040,
  "\u2581genetisch": 8041,
  "\u2581dumping": 8042,
  "\u2581(5": 8043,
  "\u2581Verst\u00e4ndnis": 8044,
  "\u2581falsche": 8045,
  "\u2581welches": 8046,
  "\u2581Faktor": 8047,
  "\u258106": 8048,
  "stoff": 8049,
  "materiaal": 8050,
  "verdrag": 8051,
  "kar": 8052,
  "nbetracht": 8053,
  "\u2581ingedeeld": 8054,
  "ologische": 8055,
  "bestrijding": 8056,
  "bewertung": 8057,
  "\u2581afgifte": 8058,
  "Rapporteur": 8059,
  "\u2581hulpbronnen": 8060,
  "zet": 8061,
  "\u2581Insbesondere": 8062,
  "regels": 8063,
  "\u25814)": 8064,
  "\u2581zufrieden": 8065,
  "methode": 8066,
  "Un": 8067,
  "zal": 8068,
  "dij": 8069,
  "oid": 8070,
  "\u2581h\u00f6heren": 8071,
  "\u2581zwanger": 8072,
  "grenz": 8073,
  "\u2581w\u00fcnschen": 8074,
  "\u2581\u00dcbermittlung": 8075,
  "\u2581Werbung": 8076,
  "\u2581luisteren": 8077,
  "\u2581Adresse": 8078,
  "\u2581aanvrager": 8079,
  "\u2581kleinere": 8080,
  "\u2581voortvloeien": 8081,
  "\u2581w\u00fcnscht": 8082,
  "tus": 8083,
  "\u2581jeugd": 8084,
  "\u2581lagen": 8085,
  "\u2581voorgaande": 8086,
  "behandlung": 8087,
  "\u2581Rand": 8088,
  "\u2581beveiliging": 8089,
  "boek": 8090,
  "\u2581besuchen": 8091,
  "Afrika": 8092,
  "\u2581vertrek": 8093,
  "USE": 8094,
  "\u2581Herkunft": 8095,
  "\u2581Wach": 8096,
  "\u2581Nachweis": 8097,
  "sch\u00fc": 8098,
  "\u2581sprak": 8099,
  "\u2581Laufzeit": 8100,
  "\u2581Lohn": 8101,
  "\u2581standpunten": 8102,
  "\u2581unternommen": 8103,
  "\u2581Konto": 8104,
  "\u2581Labor": 8105,
  "zentrum": 8106,
  "\u2581w\u00fc": 8107,
  "\u2581trots": 8108,
  "\u2581Kabel": 8109,
  "\u2581mitgeteilt": 8110,
  "onnen": 8111,
  "\u2581Einnahme": 8112,
  "\u2581Saint": 8113,
  "\u2581regionaler": 8114,
  "sluitende": 8115,
  "/10": 8116,
  "\u2581Zusammensetzung": 8117,
  "\u2581verordeningen": 8118,
  "\u2581loon": 8119,
  "\u2581Naam": 8120,
  "\u2581Korea": 8121,
  "sbericht": 8122,
  "\u2581vervullen": 8123,
  "Een": 8124,
  "nutz": 8125,
  "\u2581einbezogen": 8126,
  "\u2581Produkten": 8127,
  "\u2581froh": 8128,
  "\u2581Drie": 8129,
  "\u2581Multi": 8130,
  "\u2581bos": 8131,
  "\u2581gehoor": 8132,
  "\u2581Pol": 8133,
  "\u2581aufmerksam": 8134,
  "\u25811973": 8135,
  "\u2581Woord": 8136,
  "\u2581fehlende": 8137,
  "\u2581miss": 8138,
  "\u2581voormalige": 8139,
  "\u2581beschikbaarheid": 8140,
  "\u2581fonds": 8141,
  "\u2581uitsluiting": 8142,
  "Dok": 8143,
  "\u2581ver\u00e4ndert": 8144,
  "\u2581Erstens": 8145,
  "offer": 8146,
  "\u2581uiteenlopend": 8147,
  "\u2581voornemens": 8148,
  "\u2581beigef\u00fcgt": 8149,
  "\u2581Afdeling": 8150,
  "\u2581gegenw\u00e4rtig": 8151,
  "\u2581Ons": 8152,
  "\u2581Osten": 8153,
  "fil": 8154,
  "\u2581ker": 8155,
  "\u2581geeigneten": 8156,
  "sovereenkomst": 8157,
  "clu": 8158,
  "eh": 8159,
  "\u2581Dorf": 8160,
  "\u2581durchgef\u00fchrten": 8161,
  "\u258191/41": 8162,
  "\u2581dossier": 8163,
  "\u2581aufzu": 8164,
  "\u2581teilt": 8165,
  "\u2581derden": 8166,
  "\u2581AAN": 8167,
  "\u2581wei": 8168,
  "\u2581moorden": 8169,
  "\u2581Lev": 8170,
  "\u2581bezahlt": 8171,
  "toenemende": 8172,
  "\u2581bedeuten": 8173,
  "\u2581minstens": 8174,
  "\u2581spezielle": 8175,
  "atoren": 8176,
  "\u2581vroeger": 8177,
  "CI": 8178,
  "erwijl": 8179,
  "\u2581waardering": 8180,
  "\u2581prima": 8181,
  "2001": 8182,
  "\u2581Zusammenfassung": 8183,
  "\u2581agent": 8184,
  "\u2581S\u00fcd": 8185,
  "its": 8186,
  "\u2581preventie": 8187,
  "s\u00e4tze": 8188,
  "bedrijf": 8189,
  ".00": 8190,
  "uc": 8191,
  "\u2581gezorgd": 8192,
  "richten": 8193,
  "\u2581Pflichten": 8194,
  "sl\u00e4ndern": 8195,
  "\u2581Umst\u00e4nde": 8196,
  "\u2581hoher": 8197,
  "\u2581vervaardigd": 8198,
  "\u2581grundlegenden": 8199,
  "\u2581entiteit": 8200,
  "rest": 8201,
  "\u2581Sher": 8202,
  "\u2581Sil": 8203,
  "\u2581effectieve": 8204,
  "\u2581pers\u00f6nlichen": 8205,
  "\u2581Besitz": 8206,
  "\u2581eenvoudige": 8207,
  "\u2581L\u00e4nge": 8208,
  "\u2581James": 8209,
  "\u2581Mer": 8210,
  "\u2581Belgische": 8211,
  "\u2581Laut": 8212,
  "\u2581Europol": 8213,
  "\u2581geregelt": 8214,
  "\u00e4ren": 8215,
  "\u2581Ausschreibung": 8216,
  "\u2581vollkommen": 8217,
  "lingt": 8218,
  "\u2581Marke": 8219,
  "\u2581inzet": 8220,
  "ief": 8221,
  "\u2581Etwa": 8222,
  "ila": 8223,
  "persoonsgegevens": 8224,
  "\u2581gebouwd": 8225,
  "wu": 8226,
  "\u2581EVA": 8227,
  "zuur": 8228,
  "\u2581Bru": 8229,
  "\u25811.2.1": 8230,
  "\u2581Gleichzeitig": 8231,
  "weer": 8232,
  "\u2581gevangenis": 8233,
  "\u2581wetten": 8234,
  "\u2581landbouwers": 8235,
  "\u2581Grundrechte": 8236,
  "\u2581mittels": 8237,
  "\u2581Schwangerschaft": 8238,
  "\u2581Deutsch": 8239,
  "AC": 8240,
  "\u2581Erwerb": 8241,
  "\u2581Priorit\u00e4t": 8242,
  "\u2581toegenomen": 8243,
  "schuld": 8244,
  "\u2581k\u00f6nne": 8245,
  "cul": 8246,
  "\u2581Gerechtigkeit": 8247,
  "\u2581Noorwegen": 8248,
  "\u2581sucht": 8249,
  "stuk": 8250,
  "zoals": 8251,
  "\u2581gestrichen": 8252,
  "\u2581ring": 8253,
  "\u2581abzu": 8254,
  "\u2581Verf\u00fcgbarkeit": 8255,
  "rop": 8256,
  "\u2581Street": 8257,
  "\u2581Poly": 8258,
  "\u2581posten": 8259,
  "\u2581vreemd": 8260,
  "\u2581verstaan": 8261,
  "\u2581Liberalisierung": 8262,
  "cur": 8263,
  "\u2581Gesetzes": 8264,
  "\u2581(*)": 8265,
  "\u2581volwassen": 8266,
  "ISBN": 8267,
  "wor": 8268,
  "\u2581Tar": 8269,
  "\u2581Tabletten": 8270,
  "System": 8271,
  "\u2581IE": 8272,
  "\u2581Simon": 8273,
  "\u2581opleveren": 8274,
  "gehalte": 8275,
  "transport": 8276,
  "\u2581Symptome": 8277,
  "organ": 8278,
  "\u2581Krankheiten": 8279,
  "\u2581officieel": 8280,
  "\u2581Houd": 8281,
  "ora": 8282,
  "cio": 8283,
  "\u2581Geb\u00fchren": 8284,
  "\u2581Studenten": 8285,
  "\u2581Schi": 8286,
  "\u2581omzetting": 8287,
  "\u2581Direkt": 8288,
  "poli": 8289,
  "\u2581nachhaltigen": 8290,
  "\u2581St\u00e4ndige": 8291,
  "\u2581toont": 8292,
  "ennoch": 8293,
  "paar": 8294,
  "\u2581Dal": 8295,
  "\u2581Aufsicht": 8296,
  "\u2581entiteiten": 8297,
  "\u2581besprekingen": 8298,
  "\u2581Lei": 8299,
  "ppel": 8300,
  "\u2581interessante": 8301,
  "\u2581fehlt": 8302,
  "mittag": 8303,
  "omen": 8304,
  "h\u00e4user": 8305,
  "\u2581gesellschaft": 8306,
  "modelle": 8307,
  "\u2581behalten": 8308,
  "\u2581hinweisen": 8309,
  "\u2581leichter": 8310,
  "\u2581actieprogramma": 8311,
  "\u2581indiening": 8312,
  "\u2581herstructurer": 8313,
  "kontrolle": 8314,
  "\u2581Naas": 8315,
  "DO": 8316,
  "warm": 8317,
  "loch": 8318,
  "\u2581direkte": 8319,
  "\u2581geboten": 8320,
  "ors": 8321,
  "\u2581deelt": 8322,
  "\u2581gefallen": 8323,
  "\u2581M\u00e4": 8324,
  "rak": 8325,
  "\u2581Temp": 8326,
  "\u2581afbeelding": 8327,
  "\u2581gevaarlijk": 8328,
  "\u2581erg\u00e4nzt": 8329,
  "gebiet": 8330,
  "\u2581Kategorien": 8331,
  "\u2581arm": 8332,
  "zeichen": 8333,
  "\u2581oppervlakte": 8334,
  "stad": 8335,
  "\u2581Conferentie": 8336,
  "\u2581Ost": 8337,
  "\u2581angeboten": 8338,
  "\u2581ausw\u00e4hlen": 8339,
  "ric": 8340,
  "\u2581Ukraine": 8341,
  "\u2581angepasst": 8342,
  "\u2581mittel": 8343,
  "\u2581Grenze": 8344,
  "\u2581gel\u00f6st": 8345,
  "\u2581verklaren": 8346,
  "\u2581aankoop": 8347,
  "www": 8348,
  "\u2581verlaging": 8349,
  "7/8": 8350,
  "\u2581uitdaging": 8351,
  "\u2581Beweise": 8352,
  "\u2581eingestellt": 8353,
  "\u2581werknemer": 8354,
  "\u2581ontwikkelde": 8355,
  "dacht": 8356,
  "4%": 8357,
  "\u2581dagelijkse": 8358,
  "type": 8359,
  "\u2581Erkrankungen": 8360,
  "\u2581Ei": 8361,
  "\u2581delegatie": 8362,
  "\u2581Flexibilit\u00e4t": 8363,
  "\u2581Kanada": 8364,
  "etten": 8365,
  "\u2581V\u00f6lker": 8366,
  "\u2581dierlijke": 8367,
  "\u2581k\u00e4mpfen": 8368,
  "\u2581contacten": 8369,
  "\u2581Anschrift": 8370,
  "wetenschappelijk": 8371,
  "\u2581160": 8372,
  "\u2581er\u00f6rtert": 8373,
  "\u2581opgezet": 8374,
  "TT": 8375,
  "\u2581Einheiten": 8376,
  "wezen": 8377,
  "nah": 8378,
  "Com": 8379,
  "\u2581Tegen": 8380,
  "\u2581verontreiniging": 8381,
  "\u2581Schwer": 8382,
  "zien": 8383,
  "r\u00e9": 8384,
  "\u2581Einkommen": 8385,
  "Verordnung": 8386,
  "\u2581heffing": 8387,
  "\u2581Vanaf": 8388,
  "\u2581bestrijden": 8389,
  "tensie": 8390,
  "\u2581verwerkt": 8391,
  "sprogramme": 8392,
  "\u2581DAS": 8393,
  "\u2581tekenen": 8394,
  "\u2581Cata": 8395,
  "\u2581einzu": 8396,
  "tud": 8397,
  "\u25811974": 8398,
  "\u2581Erd": 8399,
  "\u2581onderstaande": 8400,
  "stern": 8401,
  "\u2581normalerweise": 8402,
  "austausch": 8403,
  "\u2581HIV": 8404,
  "\u2581Eurostat": 8405,
  "\u2581Ski": 8406,
  "\u2581Kl\u00e4ger": 8407,
  "\u2581F\u00e4higkeiten": 8408,
  "\u2581180": 8409,
  "plaatsen": 8410,
  "brand": 8411,
  "SI": 8412,
  "einander": 8413,
  "\u2581blo\u00df": 8414,
  "zucker": 8415,
  "produkte": 8416,
  "\u2581cha": 8417,
  "doe": 8418,
  "\u25812,5": 8419,
  "lucht": 8420,
  "\u2581bijgevolg": 8421,
  "PP": 8422,
  "\u2581BBP": 8423,
  "\u2581weitgehend": 8424,
  "film": 8425,
  "nom": 8426,
  "publik": 8427,
  "\u2581Politiken": 8428,
  "\u2581Kopenhagen": 8429,
  "grund": 8430,
  "\u2581sorgf\u00e4ltig": 8431,
  "\u2581comfort": 8432,
  "\u2581arbeit": 8433,
  "\u2581vorgelegten": 8434,
  "\u2581gemeten": 8435,
  "\u2581Durchsetzung": 8436,
  "\u2581dubbele": 8437,
  "\u2581beeintr\u00e4chtigt": 8438,
  "\u2581contracten": 8439,
  "\u2581\u2265": 8440,
  "middag": 8441,
  "\u2581kleuren": 8442,
  "\u2581probeert": 8443,
  "aties": 8444,
  "elli": 8445,
  "\u2581abgelehnt": 8446,
  "\u2581gezonde": 8447,
  "f\u00e4hrt": 8448,
  "\u2581indeling": 8449,
  "\u2581begrotings": 8450,
  "\u2581Statistiken": 8451,
  "\u2581steekproef": 8452,
  "\u2581grondstoffen": 8453,
  "\u2581verl\u00e4ngert": 8454,
  "\u2581GO": 8455,
  "\u2581roepen": 8456,
  "\u2581gutes": 8457,
  "ving": 8458,
  "\u2581gerechtfertigt": 8459,
  "\u2581plaatse": 8460,
  "\u2581Balkan": 8461,
  "\u2581erforderliche": 8462,
  "ago": 8463,
  "vig": 8464,
  "laar": 8465,
  "politische": 8466,
  "genen": 8467,
  "\u2581Anwendungen": 8468,
  "\u2581lengte": 8469,
  "\u2581seksue": 8470,
  "\u2581Jugendliche": 8471,
  "\u2581aspect": 8472,
  "\u2581Stoffen": 8473,
  "\u2581plaatsvindt": 8474,
  "\u2581volume": 8475,
  "sort": 8476,
  "\u2581\u00b1": 8477,
  "ture": 8478,
  "\u2581Tabak": 8479,
  "\u2581Unfall": 8480,
  "\u2581schweren": 8481,
  "tschaftszweigs": 8482,
  "\u2581Eingang": 8483,
  "\u2581positiven": 8484,
  "\u2581Party": 8485,
  "\u2581Rad": 8486,
  "\u2581Sch\u00fcler": 8487,
  "\u2581Hoeveel": 8488,
  "\u2581Quellen": 8489,
  "\u00fcnd": 8490,
  "\u2581dennoch": 8491,
  "urs": 8492,
  "\u25812.1": 8493,
  "stroom": 8494,
  "m\u00e4": 8495,
  "\u2581Lebensmitteln": 8496,
  "pers": 8497,
  "MA": 8498,
  "\u2581bezwaar": 8499,
  "\u2581wilden": 8500,
  "\u2581einfache": 8501,
  "sin": 8502,
  "\u2581Erreichung": 8503,
  "\u2581Versorgung": 8504,
  "ationen": 8505,
  "\u2581mensheid": 8506,
  "\u2581ausl\u00e4ndische": 8507,
  "\u2581Lot": 8508,
  "stoffen": 8509,
  "\u2581Schlu\u00dffolgerung": 8510,
  "\u2581beantragt": 8511,
  "\u2581hi": 8512,
  "\u2581Termin": 8513,
  "Wat": 8514,
  "pr": 8515,
  "\u2581Erzeugnis": 8516,
  "\u2581rechtzeitig": 8517,
  "\u2581chronische": 8518,
  "\u2581laatstelijk": 8519,
  "lebt": 8520,
  "graf": 8521,
  "swert": 8522,
  "ontwerpresolutie": 8523,
  "flu\u00df": 8524,
  "laat": 8525,
  "\u2581Wet": 8526,
  "\u2581werkzaam": 8527,
  "\u2581munt": 8528,
  "\u2581K\u00f6nnte": 8529,
  "\u2581Speicher": 8530,
  "urg": 8531,
  "\u25811.6.": 8532,
  "\u2581reichen": 8533,
  "\u2581hond": 8534,
  "\u2581voorbeelden": 8535,
  "\u2581Kleine": 8536,
  "\u2581koper": 8537,
  "\u2581Versand": 8538,
  "\u2581vorgesehene": 8539,
  "\u2581offenbar": 8540,
  "grepen": 8541,
  "szeitraum": 8542,
  "\u2581Befehl": 8543,
  "\u2581gestattet": 8544,
  "ifi": 8545,
  "\u2581aktuellen": 8546,
  "\u2581Praktiken": 8547,
  "iso": 8548,
  "pool": 8549,
  "\u2581g\u00fcnstigen": 8550,
  "\u2581Aktionsprogramm": 8551,
  "\u2581Arbeitspl\u00e4tzen": 8552,
  "NE": 8553,
  "CC": 8554,
  "achtig": 8555,
  "\u2581religie": 8556,
  "\u2581levert": 8557,
  "vrij": 8558,
  "CAS": 8559,
  "knop": 8560,
  "regelung": 8561,
  "stadt": 8562,
  "\u2581Boek": 8563,
  "\u2581Betreft": 8564,
  "\u2581liefern": 8565,
  "UL": 8566,
  "uel": 8567,
  "Mo": 8568,
  "\u2581omtrent": 8569,
  "\u2581Bulgarien": 8570,
  "\u2581Cy": 8571,
  "\u2581wert": 8572,
  "\u2581Prof": 8573,
  "\u2581besucht": 8574,
  "\u2581erhielten": 8575,
  "gr": 8576,
  "\u2581hierf\u00fcr": 8577,
  "grond": 8578,
  "VER": 8579,
  "oxy": 8580,
  "\u2581uitdrukking": 8581,
  "fol": 8582,
  "\u2581stadium": 8583,
  "\u2581UK": 8584,
  "gelernt": 8585,
  "minister": 8586,
  "\u2581geschieht": 8587,
  "\u2581BESLUIT": 8588,
  "\u2581Centrale": 8589,
  "\u2581extrem": 8590,
  "\u2581vergelijkbare": 8591,
  "\u2581weergegeven": 8592,
  "5,": 8593,
  "schein": 8594,
  "Inter": 8595,
  "\u2581ausgerichtet": 8596,
  "\u2581globalen": 8597,
  "\u2581wahren": 8598,
  "%": 8599,
  "\u2581DEN": 8600,
  "\u2581Reich": 8601,
  "\u2581stattfinden": 8602,
  "\u2581sicherlich": 8603,
  "\u2581Daarbij": 8604,
  "\u2581lichte": 8605,
  "gehalt": 8606,
  "\u2581besonderer": 8607,
  "\u2581Abbau": 8608,
  "\u2581Metall": 8609,
  "\u2581makkelijk": 8610,
  "\u2581St\u00e4rke": 8611,
  "\u2581auswirken": 8612,
  "Gruppe": 8613,
  "\u2581HOOFDSTUK": 8614,
  "\u2581stop": 8615,
  "lohn": 8616,
  "punten": 8617,
  "\u2581fondsen": 8618,
  "dosis": 8619,
  "wood": 8620,
  "\u2581empfehlen": 8621,
  "\u2581zus\u00e4tzlich": 8622,
  "\u2581Gesch\u00e4fte": 8623,
  "\u2581verminderd": 8624,
  "\u2581Dadurch": 8625,
  "\u2581Pin": 8626,
  "\u2581Sky": 8627,
  "antwoordelijke": 8628,
  "\u2581kleding": 8629,
  "risico": 8630,
  "\u2581f\u00fchlt": 8631,
  "\u2581vorgeschlagene": 8632,
  "\u258114,": 8633,
  "doc": 8634,
  "position": 8635,
  "\u2581max": 8636,
  "RA": 8637,
  "\u2581geschrapt": 8638,
  "ERS": 8639,
  "\u00fcchtig": 8640,
  "\u2581drank": 8641,
  "\u2581KAPITEL": 8642,
  "treib": 8643,
  "typ": 8644,
  "\u2581geconfronteerd": 8645,
  "\u2581R\u00fcckgang": 8646,
  "\u2581dargelegt": 8647,
  "problemen": 8648,
  "\u2581uitgesproken": 8649,
  "\u2581borst": 8650,
  "kast": 8651,
  "oe": 8652,
  "\u2581gewenst": 8653,
  "zucht": 8654,
  "\u25811970": 8655,
  "\u2581schilder": 8656,
  "\u2581veilige": 8657,
  "\u2581Wahlen": 8658,
  "\u2581elektriciteits": 8659,
  "\u2581Av": 8660,
  "\u2581vergezeld": 8661,
  "\u2581Ver\u00e4nderung": 8662,
  "\u2581Technik": 8663,
  "\u2581\u00c4r": 8664,
  "\u2581107": 8665,
  "\u2581orale": 8666,
  "ries": 8667,
  "vallen": 8668,
  "\u2581Hindernisse": 8669,
  "\u2581Stufe": 8670,
  "\u2581niederl\u00e4ndische": 8671,
  "\u2581werkelijkheid": 8672,
  "ves": 8673,
  "\u2581Tr\u00e4ger": 8674,
  "\u2581geistige": 8675,
  "\u2581RO": 8676,
  "\u2581zwarte": 8677,
  "gue": 8678,
  "\u2581kantoren": 8679,
  "\u2581Geschenk": 8680,
  "\u2581trinken": 8681,
  "\u2581klacht": 8682,
  "\u2581afvalstoffen": 8683,
  "\u2581Darf": 8684,
  "\u2581Ana": 8685,
  "\u2581adequate": 8686,
  "6,": 8687,
  "\u2581Erhebung": 8688,
  "\u2581begr\u00fc\u00dfen": 8689,
  "centrum": 8690,
  "\u2581gepaard": 8691,
  "\u2581Hinweise": 8692,
  "\u2581gemein": 8693,
  "\u2581bijsluiter": 8694,
  "\u2581befassen": 8695,
  "\u2581Gesetze": 8696,
  "suchen": 8697,
  "\u2581EEN": 8698,
  "\u2581samenwerken": 8699,
  "EP": 8700,
  "\u2581ISBN": 8701,
  "\u2581Egypte": 8702,
  "\u2581gevolge": 8703,
  "\u2581indicatoren": 8704,
  "\u2581zulks": 8705,
  "\u2581gedachte": 8706,
  "freund": 8707,
  "stal": 8708,
  "\u2581einverstanden": 8709,
  "\u2581enorm": 8710,
  "\u2581Gegevens": 8711,
  "\u2581rode": 8712,
  "\u2581Injektion": 8713,
  "\u2581subsidie": 8714,
  "\u2581verwijst": 8715,
  "\u2581rekenen": 8716,
  "mobil": 8717,
  "\u258160%": 8718,
  "vertrauen": 8719,
  "\u2581bekende": 8720,
  "\u2581vet": 8721,
  "\u2581lijk": 8722,
  "\u2581hierher": 8723,
  "\u2581oefenen": 8724,
  "ses": 8725,
  "back": 8726,
  "utter": 8727,
  "\u2581elf": 8728,
  "\u2581normalen": 8729,
  "\u2581Export": 8730,
  "\u2581Vietnam": 8731,
  "\u2581Schreib": 8732,
  "\u2581helaas": 8733,
  "\u2581gef\u00e4llt": 8734,
  "\u25812%": 8735,
  "\u2581Subsidiarit\u00e4t": 8736,
  "100": 8737,
  "\u2581centraal": 8738,
  "\u2581verleende": 8739,
  "\u2581toegankelijk": 8740,
  "eben": 8741,
  "\u2581armen": 8742,
  "\u2581effectief": 8743,
  "sprache": 8744,
  "\u2581Geschwindigkeit": 8745,
  "\u2581ausreichende": 8746,
  "\u2581ge\u00efntegreerd": 8747,
  "\u2581Vorgehen": 8748,
  "ander": 8749,
  "\u2581Schlag": 8750,
  "\u2581angeht": 8751,
  "\u25810,1": 8752,
  "\u2581ruime": 8753,
  "\u2581beweging": 8754,
  "\u2581internen": 8755,
  "\u2581EFTA": 8756,
  "\u2581Sitzungen": 8757,
  "advies": 8758,
  "\u2581hangt": 8759,
  "\u2581werkgevers": 8760,
  "\u2581fouten": 8761,
  "\u2581terugkeer": 8762,
  "\u2581vestiging": 8763,
  "sson": 8764,
  "\u2581wand": 8765,
  "\u2581behoud": 8766,
  "\u2581Emissionen": 8767,
  "\u2581spelers": 8768,
  "\u2581daaronder": 8769,
  "\u2581verenigbaar": 8770,
  "\u2581Bro": 8771,
  "\u2581Streit": 8772,
  "\u2581Unabh\u00e4ngigkeit": 8773,
  "seh": 8774,
  "\u2581Aktien": 8775,
  "sive": 8776,
  "\u2581honger": 8777,
  "\u2581Engagement": 8778,
  "voorstel": 8779,
  "\u2581Bla": 8780,
  "sl\u00e4nder": 8781,
  "\u2581ondergaan": 8782,
  "sch\u00e4tz": 8783,
  "\u2581druck": 8784,
  "\u2581z\u00e4hlen": 8785,
  "zon": 8786,
  "\u2581wonach": 8787,
  "borg": 8788,
  "\u2581verhindert": 8789,
  "orts": 8790,
  "\u2581gegangen": 8791,
  "ody": 8792,
  "\u2581Sch\u00f6pf": 8793,
  "\u2581\u00d6": 8794,
  "smittel": 8795,
  "idi": 8796,
  "\u2581191": 8797,
  "\u2581aktualisieren": 8798,
  "\u2581demokratischen": 8799,
  "\u2581Pl\u00e4ne": 8800,
  "\u2581moeilijke": 8801,
  "Zu": 8802,
  "\u2581interventie": 8803,
  "\u2581verklaart": 8804,
  "\u2581terreinen": 8805,
  "Op": 8806,
  "\u2581vreemde": 8807,
  "\u2581Haushaltsplan": 8808,
  "rik": 8809,
  "\u2581Place": 8810,
  "\u2581vervanging": 8811,
  "\u2581Identit\u00e4t": 8812,
  "\u2581aangelegenheden": 8813,
  "\u2581Frans": 8814,
  "OM": 8815,
  "\u2581stukken": 8816,
  "r\u00fcck": 8817,
  "izer": 8818,
  "\u2581kaderprogramma": 8819,
  "wing": 8820,
  "\u2581bescheiden": 8821,
  "\u2581primaire": 8822,
  "\u2581Verzeichnis": 8823,
  "\u2581breed": 8824,
  "bat": 8825,
  "\u2581Ag": 8826,
  "\u2581mu": 8827,
  "\u25814.4": 8828,
  "\u2581krank": 8829,
  "\u2581Sozialpartner": 8830,
  "Amerika": 8831,
  "\u2581geweldige": 8832,
  "ew": 8833,
  "\u2581Lizenz": 8834,
  "\u2581Verbrechen": 8835,
  "\u2581Satelliten": 8836,
  "\u2581leef": 8837,
  "\u2581zentrale": 8838,
  "\u2581pers\u00f6nliche": 8839,
  "\u2581zeigte": 8840,
  "\u2581probeerde": 8841,
  "^": 8842,
  "\u2581Schnell": 8843,
  "\u25812.2": 8844,
  "\u2581schapen": 8845,
  "\u2581zahlreichen": 8846,
  "\u2581gered": 8847,
  "cat": 8848,
  "\u2581unterzeichnet": 8849,
  "\u2581Blumen": 8850,
  "alfa": 8851,
  "\u2581H\u00f6chst": 8852,
  "\u2581tal": 8853,
  "lacon": 8854,
  "\u2581dagelijks": 8855,
  "\u2581granen": 8856,
  "\u2581gelezen": 8857,
  "\u2581fungerend": 8858,
  "\u2581macro": 8859,
  "springen": 8860,
  "\u2581Vermarktung": 8861,
  "\u2581Jerusalem": 8862,
  "\u2581vraagstuk": 8863,
  "\u2581gunstig": 8864,
  "\u2581Netze": 8865,
  "\u2581Beispiele": 8866,
  "\u2581voegen": 8867,
  "\u2581vissen": 8868,
[...]
